<pad>	0
<unk>	0
<s>	0
</s>	0
in	-0
on	-1
ti	-2
er	-3
an	-4
▁t	-5
es	-6
en	-7
or	-8
al	-9
▁s	-10
re	-11
at	-12
tion	-13
▁c	-14
he	-15
ing	-16
▁p	-17
▁a	-18
ed	-19
it	-20
ar	-21
is	-22
▁o	-23
and	-24
ro	-25
▁S	-26
▁d	-27
▁f	-28
▁(	-29
▁m	-30
le	-31
▁1	-32
ent	-33
▁the	-34
▁C	-35
▁and	-36
ation	-37
ec	-38
▁in	-39
ic	-40
▁b	-41
▁A	-42
as	-43
ac	-44
▁I	-45
▁T	-46
et	-47
▁P	-48
▁w	-49
ut	-50
om	-51
▁of	-52
▁D	-53
el	-54
us	-55
ol	-56
▁2	-57
ig	-58
ur	-59
▁R	-60
▁to	-61
▁M	-62
un	-63
▁e	-64
od	-65
▁F	-66
..	-67
st	-68
▁=	-69
am	-70
ce	-71
ul	-72
▁E	-73
▁re	-74
ment	-75
▁n	-76
oc	-77
il	-78
ow	-79
▁for	-80
im	-81
▁l	-82
ve	-83
▁v	-84
id	-85
▁h	-86
ter	-87
▁L	-88
ab	-89
ess	-90
0.	-91
▁r	-92
ad	-93
ate	-94
▁O	-95
pl	-96
▁In	-97
▁3	-98
▁-	-99
um	-100
ect	-101
▁st	-102
▁th	-103
ag	-104
▁is	-105
▁pro	-106
ith	-107
00	-108
ch	-109
▁B	-110
ot	-111
ver	-112
ure	-113
if	-114
ir	-115
▁g	-116
em	-117
orm	-118
▁N	-119
▁con	-120
qu	-121
ap	-122
ay	-123
ep	-124
ity	-125
ri	-126
og	-127
▁on	-128
ion	-129
tic	-130
▁V	-131
▁G	-132
▁4	-133
ts	-134
▁us	-135
omp	-136
ly	-137
ain	-138
▁with	-139
th	-140
os	-141
uc	-142
▁W	-143
▁H	-144
▁ex	-145
▁5	-146
iz	-147
est	-148
ata	-149
▁al	-150
▁U	-151
ations	-152
ud	-153
ort	-154
.1	-155
tim	-156
02	-157
▁Pro	-158
ine	-159
▁y	-160
▁St	-161
ang	-162
).	-163
ens	-164
ers	-165
ech	-166
form	-167
ist	-168
end	-169
▁k	-170
▁tr	-171
▁The	-172
ple	-173
▁res	-174
per	-175
age	-176
ef	-177
echn	-178
ial	-179
olog	-180
▁Con	-181
ance	-182
te	-183
▁or	-184
tions	-185
omm	-186
ach	-187
▁[	-188
enc	-189
▁an	-190
▁6	-191
▁sh	-192
act	-193
igh	-194
....	-195
▁as	-196
iv	-197
ear	-198
ore	-199
able	-200
out	-201
▁mod	-202
▁0	-203
yst	-204
▁are	-205
op	-206
ign	-207
ystem	-208
echnolog	-209
ant	-210
ble	-211
ak	-212
rom	-213
up	-214
▁comp	-215
und	-216
cess	-217
tive	-218
▁ch	-219
ia	-220
ans	-221
.2	-222
ork	-223
se	-224
▁ac	-225
▁by	-226
duc	-227
▁that	-228
▁wh	-229
▁data	-230
ical	-231
▁be	-232
▁im	-233
▁7	-234
▁Th	-235
ence	-236
ip	-237
▁0.	-238
ev	-239
▁Q	-240
ard	-241
),	-242
our	-243
ents	-244
ame	-245
▁per	-246
art	-247
all	-248
▁soc	-249
▁8	-250
▁from	-251
▁K	-252
eng	-253
▁1.	-254
▁ad	-255
ff	-256
▁Ex	-257
▁\	-258
92	-259
ire	-260
▁+	-261
ass	-262
▁ro	-263
echnology	-264
NT	-265
pro	-266
ub	-267
▁can	-268
ors	-269
ct	-270
ue	-271
are	-272
rac	-273
iti	-274
▁10	-275
port	-276
1,	-277
ind	-278
time	-279
ition	-280
etw	-281
▁cl	-282
ication	-283
68	-284
ress	-285
▁system	-286
▁Comp	-287
cl	-288
ult	-289
▁le	-290
ction	-291
int	-292
▁using	-293
xt	-294
▁Im	-295
ik	-296
ere	-297
fig	-298
▁2.	-299
**	-300
ost	-301
ual	-302
ments	-303
ou	-304
ock	-305
▁inter	-306
ell	-307
ail	-308
ated	-309
ms	-310
ies	-311
▁un	-312
ute	-313
▁192	-314
ns	-315
▁it	-316
put	-317
ati	-318
ast	-319
▁se	-320
▁int	-321
ys	-322
▁model	-323
ge	-324
▁J	-325
ack	-326
▁202	-327
DE	-328
▁Al	-329
):	-330
▁comm	-331
11	-332
fer	-333
▁3.	-334
.168	-335
ST	-336
▁qu	-337
ace	-338
ric	-339
enti	-340
ject	-341
▁9	-342
ram	-343
▁192.168	-344
▁at	-345
ning	-346
ug	-347
yp	-348
ari	-349
edia	-350
ide	-351
ased	-352
ase	-353
ath	-354
▁he	-355
ener	-356
▁pre	-357
ew	-358
dic	-359
earch	-360
▁&	-361
ode	-362
▁Ch	-363
▁time	-364
ust	-365
▁Ad	-366
▁En	-367
▁social	-368
ey	-369
1)	-370
▁Y	-371
ber	-372
▁Res	-373
res	-374
av	-375
ther	-376
ks	-377
▁->	-378
30	-379
con	-380
ility	-381
▁ap	-382
▁sp	-383
▁Re	-384
▁Un	-385
▁4.	-386
ord	-387
▁For	-388
▁x	-389
ary	-390
eat	-391
▁Tr	-392
▁det	-393
ory	-394
alu	-395
▁This	-396
▁trans	-397
▁j	-398
ization	-399
formation	-400
ision	-401
12	-402
olu	-403
▁Mod	-404
lo	-405
ates	-406
ive	-407
▁Sh	-408
▁col	-409
▁resp	-410
ight	-411
0,	-412
▁op	-413
▁media	-414
ruc	-415
ulti	-416
........	-417
low	-418
rib	-419
▁(2	-420
▁you	-421
rr	-422
oun	-423
:.	-424
ID	-425
▁Fig	-426
ector	-427
ss	-428
ser	-429
ample	-430
▁<	-431
01	-432
▁/	-433
▁12	-434
▁An	-435
_2	-436
35	-437
ra	-438
ite	-439
▁me	-440
▁pl	-441
ian	-442
net	-443
tit	-444
LE	-445
rap	-446
▁11	-447
▁exp	-448
▁cont	-449
ency	-450
▁Technology	-451
bo	-452
▁has	-453
ong	-454
ON	-455
ill	-456
raph	-457
.,	-458
ile	-459
ize	-460
blem	-461
unction	-462
text	-463
ays	-464
een	-465
inal	-466
reate	-467
▁en	-468
▁par	-469
tical	-470
-2	-471
▁Ind	-472
ER	-473
iet	-474
ond	-475
aining	-476
its	-477
oth	-478
▁Ac	-479
▁ST	-480
▁Figure	-481
anc	-482
ous	-483
etween	-484
ability	-485
▁process	-486
AR	-487
pt	-488
UDE	-489
▁sc	-490
ures	-491
ities	-492
UDENT	-493
ection	-494
ne	-495
tt	-496
▁"	-497
oint	-498
55	-499
▁we	-500
pact	-501
▁rel	-502
0/	-503
ital	-504
▁Data	-505
▁dist	-506
iffer	-507
ps	-508
ara	-509
les	-510
▁5.	-511
py	-512
ave	-513
erm	-514
▁ne	-515
);	-516
sh	-517
▁dep	-518
)=	-519
ME	-520
gor	-521
▁#	-522
▁norm	-523
ax	-524
000	-525
▁no	-526
▁state	-527
formance	-528
ah	-529
ude	-530
▁man	-531
▁show	-532
▁between	-533
▁Ap	-534
▁Qu	-535
efore	-536
▁oper	-537
acy	-538
▁each	-539
cur	-540
ich	-541
▁all	-542
▁out	-543
▁Rout	-544
▁used	-545
▁technology	-546
▁ev	-547
▁eff	-548
igital	-549
wo	-550
ient	-551
▁dev	-552
▁not	-553
ensor	-554
▁13	-555
▁su	-556
.3	-557
etwork	-558
ugh	-559
RO	-560
ruct	-561
ting	-562
▁ver	-563
▁Inter	-564
▁STUDENT	-565
PI	-566
▁.	-567
▁>	-568
▁i	-569
ely	-570
▁**	-571
▁work	-572
ark	-573
atic	-574
▁dis	-575
▁this	-576
unication	-577
inu	-578
▁sign	-579
plement	-580
▁Router	-581
▁15	-582
))	-583
ule	-584
▁14	-585
▁ar	-586
umber	-587
▁Comm	-588
▁form	-589
▁into	-590
rough	-591
▁dire	-592
-1	-593
ES	-594
OR	-595
PU	-596
▁Wh	-597
▁Pre	-598
▁add	-599
esc	-600
▁Err	-601
▁bre	-602
ted	-603
▁Add	-604
indow	-605
▁met	-606
▁gener	-607
CT	-608
kan	-609
tiv	-610
▁CO	-611
sion	-612
▁use	-613
▁over	-614
IN	-615
ected	-616
gorith	-617
▁class	-618
atter	-619
▁lear	-620
anding	-621
▁multi	-622
▁prov	-623
▁z	-624
▁if	-625
alys	-626
ension	-627
_{	-628
cre	-629
3511	-630
▁Set	-631
ocu	-632
▁co	-633
▁row	-634
ix	-635
▁ob	-636
▁pr	-637
▁how	-638
ating	-639
▁differ	-640
▁Ob	-641
▁Def	-642
▁Soc	-643
alysis	-644
▁their	-645
ild	-646
plic	-647
▁Information	-648
10	-649
ply	-650
▁ID	-651
▁which	-652
olution	-653
LO	-654
umn	-655
▁und	-656
ese	-657
ice	-658
ike	-659
adod	-660
elop	-661
stit	-662
adodara	-663
tr	-664
ree	-665
▁cor	-666
▁vari	-667
ta	-668
com	-669
▁6.	-670
▁We	-671
ound	-672
32	-673
asi	-674
ied	-675
iew	-676
ise	-677
iver	-678
▁inv	-679
▁val	-680
▁stud	-681
▁Model	-682
yn	-683
ange	-684
read	-685
▁test	-686
▁through	-687
RA	-688
so	-689
led	-690
▁sim	-691
▁X	-692
▁one	-693
hec	-694
▁sub	-695
▁Step	-696
oss	-697
▁key	-698
▁two	-699
▁under	-700
ex	-701
aus	-702
plo	-703
▁Sc	-704
▁dat	-705
▁have	-706
action	-707
config	-708
ectors	-709
▁Indian	-710
mp	-711
ose	-712
itor	-713
ware	-714
▁mat	-715
entif	-716
▁feat	-717
▁Vadodara	-718
now	-719
▁de	-720
lect	-721
ults	-722
ences	-723
▁learning	-724
▁performance	-725
:2	-726
▁conn	-727
▁high	-728
gr	-729
vir	-730
▁do	-731
duct	-732
▁aut	-733
esign	-734
uration	-735
ION	-736
ved	-737
▁To	-738
▁Per	-739
viron	-740
▁breath	-741
air	-742
riv	-743
rix	-744
▁If	-745
estion	-746
imension	-747
_1	-748
onitor	-749
stitute	-750
ib	-751
the	-752
▁ed	-753
▁er	-754
peri	-755
▁	-756
cul	-757
▁20	-758
inim	-759
▁was	-760
andom	-761
▁Error	-762
gorithm	-763
▁operations	-764
ome	-765
▁Do	-766
gram	-767
ross	-768
uter	-769
▁Par	-770
▁sec	-771
ribut	-772
0.2	-773
der	-774
hys	-775
ime	-776
agement	-777
AL	-778
mod	-779
▁Op	-780
▁Met	-781
AN	-782
▁ab	-783
▁id	-784
line	-785
▁Det	-786
apter	-787
023511	-788
▁comple	-789
ok	-790
alth	-791
inux	-792
ower	-793
uild	-794
▁patter	-795
one	-796
rip	-797
tur	-798
ploy	-799
▁dec	-800
▁reg	-801
▁rep	-802
ength	-803
urve	-804
ietal	-805
▁more	-806
diction	-807
:/	-808
ft	-809
ype	-810
▁vol	-811
alcul	-812
ative	-813
▁Stud	-814
andard	-815
▁Institute	-816
▁•	-817
nal	-818
str	-819
▁requ	-820
▁System	-821
▁192.168.1	-822
IT	-823
ash	-824
heck	-825
tics	-826
tes	-827
▁Ar	-828
▁Cl	-829
▁up	-830
ampl	-831
irst	-832
tain	-833
▁Man	-834
▁Rep	-835
▁ass	-836
▁Example	-837
▁breathing	-838
▁different	-839
▁*	-840
STM	-841
hip	-842
hod	-843
ick	-844
▁Sp	-845
aset	-846
ayer	-847
ices	-848
▁Impact	-849
▁problem	-850
ob	-851
iel	-852
▁VR	-853
▁sm	-854
atus	-855
cept	-856
ific	-857
▁set	-858
asure	-859
▁Δ	-860
ada	-861
cer	-862
▁1,	-863
ible	-864
▁Key	-865
▁err	-866
▁gro	-867
erver	-868
▁reduc	-869
▁vector	-870
ai	-871
lu	-872
par	-873
blems	-874
▁Test	-875
resent	-876
▁where	-877
▁project	-878
oin	-879
▁zer	-880
actions	-881
▁create	-882
ov	-883
ake	-884
iqu	-885
▁(1	-886
isual	-887
▁Prac	-888
▁point	-889
▁before	-890
▁provid	-891
▁environ	-892
figuration	-893
2]	-894
rol	-895
▁7.	-896
ater	-897
ield	-898
ized	-899
ular	-900
▁Dev	-901
▁its	-902
▁expl	-903
▁chang	-904
▁digital	-905
ie	-906
irc	-907
uld	-908
▁On	-909
face	-910
▁fol	-911
itude	-912
▁such	-913
▁Trans	-914
▁sensor	-915
▁communication	-916
cd	-917
ify	-918
wit	-919
▁No	-920
55.2	-921
rame	-922
▁ind	-923
▁fact	-924
curacy	-925
▁optim	-926
▁function	-927
2)	-928
3)	-929
opl	-930
ses	-931
▁IP	-932
▁SE	-933
ties	-934
ables	-935
ering	-936
▁also	-937
▁graph	-938
▁signal	-939
2,	-940
In	-941
▁'	-942
://	-943
agn	-944
▁25	-945
▁am	-946
tegr	-947
▁but	-948
▁1:	-949
▁so	-950
ands	-951
alues	-952
▁yang	-953
ational	-954
24	-955
ful	-956
hed	-957
ier	-958
▁CS	-959
▁Me	-960
▁et	-961
name	-962
▁Int	-963
▁Out	-964
witch	-965
▁Result	-966
0)	-967
ph	-968
▁same	-969
▁were	-970
artment	-971
▁direct	-972
▁Problem	-973
ula	-974
▁Us	-975
asks	-976
cord	-977
tice	-978
▁Chapter	-979
▁develop	-980
................	-981
3,	-982
pre	-983
tex	-984
▁di	-985
▁100	-986
▁mem	-987
ectiv	-988
▁coll	-989
ential	-990
▁based	-991
▁calcul	-992
▁health	-993
02351130	-994
olutions	-995
▁Project	-996
onitoring	-997
▁Implement	-998
▁relations	-999
UR	-1000
▁✓	-1001
ols	-1002
▁PC	-1003
▁incl	-1004
▁bytes	-1005
▁norms	-1006
ocument	-1007
▁number	-1008
▁patterns	-1009
36	-1010
AT	-1011
SE	-1012
ld	-1013
▁Se	-1014
▁go	-1015
▁gr	-1016
orts	-1017
▁str	-1018
based	-1019
ution	-1020
▁cons	-1021
▁like	-1022
▁step	-1023
▁Vector	-1024
plications	-1025
▁:	-1026
0.4	-1027
usion	-1028
verse	-1029
OLO	-1030
▁(\	-1031
▁2025	-1032
ective	-1033
hysical	-1034
ructure	-1035
▁values	-1036
▁standard	-1037
ya	-1038
den	-1039
fic	-1040
▁18	-1041
each	-1042
▁Aut	-1043
uring	-1044
▁Fast	-1045
▁quan	-1046
▁print	-1047
▁Create	-1048
0.1	-1049
arg	-1050
col	-1051
▁pe	-1052
▁Use	-1053
cessing	-1054
▁follow	-1055
EE	-1056
FS	-1057
adi	-1058
ish	-1059
▁It	-1060
▁inf	-1061
ental	-1062
▁Form	-1063
istance	-1064
▁search	-1065
1.	-1066
14	-1067
1]	-1068
to	-1069
aly	-1070
▁2:	-1071
▁8.	-1072
▁ON	-1073
ases	-1074
iven	-1075
ount	-1076
▁Rec	-1077
▁LSTM	-1078
▁your	-1079
▁other	-1080
ification	-1081
0]	-1082
99	-1083
uk	-1084
uce	-1085
vel	-1086
way	-1087
alle	-1088
lock	-1089
ttps	-1090
tual	-1091
▁Eng	-1092
▁Val	-1093
▁hel	-1094
▁rem	-1095
▁real	-1096
amples	-1097
thernet	-1098
epartment	-1099
▁research	-1100
▁societal	-1101
}(	-1102
hat	-1103
isk	-1104
▁Lo	-1105
iety	-1106
▁pos	-1107
▁pair	-1108
▁will	-1109
▁Social	-1110
▁normal	-1111
▁output	-1112
▁respon	-1113
NS	-1114
ek	-1115
▁→	-1116
mis	-1117
▁QU	-1118
chit	-1119
olve	-1120
ould	-1121
view	-1122
▁end	-1123
eline	-1124
▁tang	-1125
entify	-1126
chitect	-1127
itional	-1128
▁network	-1129
▁features	-1130
ML	-1131
ron	-1132
ermin	-1133
▁Lear	-1134
▁SELE	-1135
▁pric	-1136
▁they	-1137
echniqu	-1138
▁models	-1139
▁17	-1140
OLOv	-1141
axim	-1142
▁ter	-1143
achine	-1144
portant	-1145
▁Network	-1146
▁analysis	-1147
()	-1148
^{	-1149
hav	-1150
hem	-1151
▁16	-1152
▁ag	-1153
orld	-1154
▁log	-1155
▁Door	-1156
▁both	-1157
▁FastE	-1158
▁zeros	-1159
▁comput	-1160
▁dataset	-1161
:202351130	-1162
AB	-1163
ty	-1164
own	-1165
tal	-1166
▁So	-1167
0.00	-1168
ming	-1169
▁bel	-1170
allel	-1171
ellig	-1172
▁Feat	-1173
▁evalu	-1174
▁input	-1175
▁Window	-1176
50	-1177
NN	-1178
ves	-1179
▁Pl	-1180
▁lo	-1181
ault	-1182
frac	-1183
tial	-1184
▁Sub	-1185
board	-1186
itial	-1187
times	-1188
urity	-1189
nowled	-1190
▁corre	-1191
▁collision	-1192
▁solutions	-1193
▁monitoring	-1194
.0	-1195
ank	-1196
pos	-1197
umm	-1198
▁De	-1199
ocus	-1200
idden	-1201
▁Time	-1202
▁cost	-1203
▁true	-1204
ctions	-1205
ention	-1206
▁FastEthernet	-1207
)#	-1208
ry	-1209
})	-1210
apt	-1211
bal	-1212
eed	-1213
▁3:	-1214
ects	-1215
ests	-1216
▁may	-1217
▁Cont	-1218
▁mark	-1219
▁need	-1220
atform	-1221
▁incre	-1222
▁retur	-1223
▁these	-1224
▁systems	-1225
plication	-1226
▁algorithm	-1227
▁expanding	-1228
▁{	-1229
ics	-1230
yth	-1231
▁Em	-1232
▁Go	-1233
havi	-1234
ideo	-1235
ping	-1236
▁10.	-1237
▁CPU	-1238
▁FRO	-1239
▁com	-1240
▁loc	-1241
▁red	-1242
ality	-1243
▁about	-1244
▁impro	-1245
▁minim	-1246
▁Engine	-1247
agnitude	-1248
▁results	-1249
▁Practice	-1250
chitecture	-1251
16	-1252
5)	-1253
MP	-1254
aw	-1255
ets	-1256
ryp	-1257
▁--	-1258
▁em	-1259
atch	-1260
cdot	-1261
load	-1262
ural	-1263
▁dan	-1264
▁sat	-1265
anced	-1266
▁most	-1267
▁only	-1268
▁appro	-1269
▁Learning	-1270
▁techniqu	-1271
▁technolog	-1272
85	-1273
=0	-1274
EN	-1275
ern	-1276
▁30	-1277
ights	-1278
odity	-1279
uture	-1280
▁2024	-1281
▁FROM	-1282
▁Linux	-1283
▁effic	-1284
▁relationship	-1285
1:	-1286
ait	-1287
RADE	-1288
atis	-1289
ward	-1290
▁Dis	-1291
▁Over	-1292
▁State	-1293
▁check	-1294
▁value	-1295
ression	-1296
▁impact	-1297
▁192.168.3	-1298
ink	-1299
mit	-1300
fess	-1301
ings	-1302
ways	-1303
▁200	-1304
▁201	-1305
▁new	-1306
istic	-1307
olesc	-1308
ustom	-1309
▁Unit	-1310
▁inst	-1311
column	-1312
▁Final	-1313
▁Output	-1314
▁access	-1315
nowledge	-1316
▁Product	-1317
}{	-1318
▁×	-1319
edi	-1320
imit	-1321
ling	-1322
▁Att	-1323
▁any	-1324
▁Node	-1325
▁Work	-1326
▁line	-1327
▁pada	-1328
dition	-1329
▁Short	-1330
15	-1331
CO	-1332
▁Z	-1333
-19	-1334
cep	-1335
wer	-1336
▁50	-1337
▁cm	-1338
ages	-1339
ople	-1340
ature	-1341
theta	-1342
itions	-1343
▁autom	-1344
▁while	-1345
▁Conver	-1346
▁result	-1347
▁reduces	-1348
▁underst	-1349
not	-1350
▁Id	-1351
iter	-1352
serv	-1353
▁Ass	-1354
▁sup	-1355
ource	-1356
atency	-1357
▁surve	-1358
▁behavi	-1359
▁measure	-1360
17	-1361
▁u	-1362
AME	-1363
_1,	-1364
▁4:	-1365
▁Ab	-1366
onal	-1367
requ	-1368
ving	-1369
▁Del	-1370
▁find	-1371
▁hand	-1372
▁small	-1373
unities	-1374
▁depend	-1375
▁predic	-1376
▁vectors	-1377
▁Question	-1378
▁accuracy	-1379
PC	-1380
▁|	-1381
til	-1382
aris	-1383
umer	-1384
▁Ans	-1385
▁MPI	-1386
▁Rel	-1387
▁Sec	-1388
▁att	-1389
▁bec	-1390
▁meng	-1391
alleng	-1392
ateway	-1393
▁start	-1394
mission	-1395
▁method	-1396
▁multiple	-1397
▁training	-1398
▁environment	-1399
3.	-1400
_3	-1401
▁q	-1402
ove	-1403
akan	-1404
amet	-1405
ause	-1406
▁Not	-1407
▁def	-1408
▁ens	-1409
▁fil	-1410
▁fin	-1411
▁What	-1412
▁Multi	-1413
▁error	-1414
▁space	-1415
ardware	-1416
▁design	-1417
▁produc	-1418
gramming	-1419
elligence	-1420
▁Computer	-1421
▁Dimension	-1422
CU	-1423
▁((	-1424
▁MI	-1425
▁av	-1426
cent	-1427
over	-1428
rite	-1429
▁cre	-1430
engan	-1431
ython	-1432
▁Gener	-1433
▁YOLOv	-1434
▁influ	-1435
▁power	-1436
▁table	-1437
▁valid	-1438
clusion	-1439
ignment	-1440
raction	-1441
▁Server	-1442
▁experi	-1443
▁respir	-1444
▁Digital	-1445
IC	-1446
-25	-1447
ext	-1448
han	-1449
▁29	-1450
▁Ev	-1451
▁vs	-1452
▁All	-1453
▁Red	-1454
▁mis	-1455
aking	-1456
itive	-1457
▁Inst	-1458
▁mean	-1459
▁size	-1460
▁first	-1461
▁group	-1462
▁Status	-1463
▁people	-1464
▁adolesc	-1465
▁changes	-1466
▁require	-1467
▁Function	-1468
▁determin	-1469
▁distance	-1470
data	-1471
rent	-1472
tity	-1473
▁Sup	-1474
▁main	-1475
▁sens	-1476
cording	-1477
partial	-1478
▁includ	-1479
▁window	-1480
ribution	-1481
▁Windows	-1482
▁address	-1483
▁192.168.2	-1484
▁calculations	-1485
5%	-1486
8.	-1487
St	-1488
gy	-1489
▁%	-1490
▁−	-1491
ask	-1492
▁19	-1493
▁32	-1494
▁equ	-1495
ained	-1496
ourse	-1497
▁than	-1498
▁visual	-1499
▁2024-25	-1500
▁respond	-1501
▁provided	-1502
portunities	-1503
3:	-1504
TT	-1505
▁9.	-1506
▁He	-1507
agne	-1508
ites	-1509
▁Lab	-1510
▁aff	-1511
▁ser	-1512
agram	-1513
iness	-1514
oplus	-1515
▁Dire	-1516
▁Expl	-1517
▁Find	-1518
▁path	-1519
irtual	-1520
rivacy	-1521
▁Class	-1522
▁Defin	-1523
▁field	-1524
▁https	-1525
▁states	-1526
▁Gateway	-1527
▁Analysis	-1528
▁implement	-1529
▁Department	-1530
▁information	-1531
0.0	-1532
iva	-1533
−2]	-1534
▁ke	-1535
ants	-1536
ider	-1537
omet	-1538
▁Col	-1539
▁Mat	-1540
▁low	-1541
ounts	-1542
▁Norm	-1543
▁Requ	-1544
ternal	-1545
ulation	-1546
▁SELECT	-1547
▁always	-1548
▁vertex	-1549
▁Deliver	-1550
▁Vectors	-1551
▁problems	-1552
▁students	-1553
ee	-1554
ade	-1555
als	-1556
cus	-1557
elf	-1558
▁(0	-1559
▁24	-1560
▁AS	-1561
▁ms	-1562
rray	-1563
▁User	-1564
ription	-1565
▁random	-1566
▁platform	-1567
▁Management	-1568
▁Communication	-1569
70	-1570
...	-1571
bit	-1572
cho	-1573
her	-1574
row	-1575
uff	-1576
ared	-1577
fter	-1578
ines	-1579
show	-1580
▁bus	-1581
lobal	-1582
tific	-1583
▁(202	-1584
▁ever	-1585
▁prob	-1586
▁rate	-1587
▁spec	-1588
aximum	-1589
agnetic	-1590
▁Parallel	-1591
▁opportunities	-1592
5,	-1593
ery	-1594
por	-1595
▁Dr	-1596
MENT	-1597
ason	-1598
umar	-1599
▁How	-1600
▁adv	-1601
ifier	-1602
▁High	-1603
▁Meta	-1604
▁sequ	-1605
olving	-1606
▁Build	-1607
▁frame	-1608
ipeline	-1609
▁Random	-1610
▁dengan	-1611
▁report	-1612
unctions	-1613
▁detection	-1614
▁dimension	-1615
67	-1616
IS	-1617
UT	-1618
sp	-1619
ert	-1620
tuk	-1621
▁Pr	-1622
ters	-1623
▁Dec	-1624
▁Obj	-1625
▁lab	-1626
▁sin	-1627
abase	-1628
ingle	-1629
round	-1630
▁prac	-1631
ftware	-1632
▁Tasks	-1633
ributed	-1634
▁satell	-1635
▁compute	-1636
▁latency	-1637
▁connected	-1638
90	-1639
MM	-1640
for	-1641
ology	-1642
plied	-1643
▁Look	-1644
▁cent	-1645
▁circ	-1646
▁long	-1647
▁when	-1648
ummary	-1649
▁Number	-1650
▁custom	-1651
tificial	-1652
▁complex	-1653
▁throughout	-1654
13	-1655
80	-1656
AC	-1657
DO	-1658
ale	-1659
cut	-1660
urn	-1661
▁22	-1662
▁cy	-1663
apat	-1664
otal	-1665
▁pol	-1666
roduc	-1667
▁them	-1668
▁well	-1669
▁GRADE	-1670
▁tools	-1671
ributes	-1672
▁Answer	-1673
▁Forest	-1674
55.255.2	-1675
(2	-1676
IM	-1677
ART	-1678
sum	-1679
ten	-1680
ull	-1681
▁IN	-1682
aper	-1683
rics	-1684
▁Fan	-1685
▁INT	-1686
▁tre	-1687
angle	-1688
onent	-1689
▁pass	-1690
▁type	-1691
eacher	-1692
tities	-1693
urrent	-1694
▁focus	-1695
▁steps	-1696
▁total	-1697
▁Switch	-1698
▁common	-1699
▁integr	-1700
▁Address	-1701
▁Formula	-1702
▁correct	-1703
escription	-1704
▁technique	-1705
▁transactions	-1706
4)	-1707
och	-1708
org	-1709
ubl	-1710
▁40	-1711
ends	-1712
oder	-1713
ynam	-1714
▁Emp	-1715
▁Ret	-1716
▁eng	-1717
▁ext	-1718
▁our	-1719
epend	-1720
inary	-1721
ority	-1722
▁Oper	-1723
▁radi	-1724
arison	-1725
figure	-1726
▁Using	-1727
▁chart	-1728
▁short	-1729
▁untuk	-1730
ificant	-1731
ination	-1732
▁online	-1733
▁static	-1734
ocuments	-1735
ployment	-1736
▁Shortcut	-1737
▁solution	-1738
processing	-1739
▁direction	-1740
▁Conclusion	-1741
▁development	-1742
/1	-1743
2(	-1744
7.	-1745
HA	-1746
IG	-1747
eb	-1748
lex	-1749
odes	-1750
ypes	-1751
▁Ref	-1752
▁men	-1753
▁tem	-1754
▁via	-1755
▁whe	-1756
iency	-1757
ocket	-1758
uting	-1759
▁conf	-1760
▁loss	-1761
unakan	-1762
▁Graph	-1763
▁Reply	-1764
▁hidden	-1765
▁length	-1766
▁market	-1767
▁return	-1768
▁general	-1769
▁directly	-1770
▁Definition	-1771
SP	-1772
Us	-1773
].	-1774
aj	-1775
361	-1776
ERY	-1777
STR	-1778
ann	-1779
ily	-1780
pag	-1781
▁0,	-1782
itra	-1783
ixed	-1784
▁0.0	-1785
▁Gar	-1786
atory	-1787
rames	-1788
▁port	-1789
▁some	-1790
ensive	-1791
▁build	-1792
▁found	-1793
▁given	-1794
▁level	-1795
▁video	-1796
▁Experi	-1797
▁column	-1798
▁during	-1799
▁matrix	-1800
ashboard	-1801
▁Physical	-1802
▁external	-1803
▁quantity	-1804
▁following	-1805
▁Prediction	-1806
▁configuration	-1807
▁classification	-1808
%)	-1809
4,	-1810
pd	-1811
-1,	-1812
ife	-1813
▁Gr	-1814
arly	-1815
cles	-1816
ully	-1817
▁upd	-1818
ience	-1819
shiva	-1820
▁many	-1821
▁sent	-1822
▁Evalu	-1823
▁Optim	-1824
▁indic	-1825
▁reduce	-1826
▁perform	-1827
▁testing	-1828
▁Detection	-1829
▁important	-1830
2+	-1831
2.	-1832
60	-1833
UL	-1834
be	-1835
cp	-1836
of	-1837
ww	-1838
ym	-1839
mid	-1840
▁##	-1841
NAME	-1842
aces	-1843
ains	-1844
arac	-1845
ours	-1846
▁Day	-1847
▁Inv	-1848
▁enc	-1849
▁hum	-1850
▁pen	-1851
▁Each	-1852
▁Name	-1853
▁call	-1854
▁help	-1855
▁mess	-1856
▁user	-1857
▁Refer	-1858
▁These	-1859
▁Valid	-1860
▁allow	-1861
▁Module	-1862
▁factor	-1863
▁memory	-1864
▁second	-1865
▁feature	-1866
▁whether	-1867
▁without	-1868
▁Document	-1869
▁Training	-1870
▁approach	-1871
▁decision	-1872
▁identify	-1873
▁Condition	-1874
("	-1875
)(	-1876
5.	-1877
su	-1878
VID	-1879
sol	-1880
▁21	-1881
▁bo	-1882
ised	-1883
▁map	-1884
▁Scal	-1885
▁make	-1886
▁want	-1887
entory	-1888
▁Based	-1889
▁price	-1890
ference	-1891
▁Garage	-1892
▁Integr	-1893
▁Student	-1894
▁machine	-1895
▁hardware	-1896
▁represent	-1897
▁management	-1898
▁Configuration	-1899
,”	-1900
3]	-1901
4.	-1902
=1	-1903
AE	-1904
UP	-1905
**:	-1906
-26	-1907
arn	-1908
iod	-1909
old	-1910
oud	-1911
pha	-1912
toc	-1913
▁2,	-1914
▁Ne	-1915
0/24	-1916
abil	-1917
ache	-1918
ails	-1919
ives	-1920
work	-1921
▁Der	-1922
▁Rev	-1923
▁Ver	-1924
▁dem	-1925
▁get	-1926
▁non	-1927
Users	-1928
▁Dist	-1929
▁back	-1930
▁best	-1931
▁dari	-1932
▁read	-1933
▁rece	-1934
CUMENT	-1935
istent	-1936
▁Const	-1937
▁Layer	-1938
▁below	-1939
▁order	-1940
▁shows	-1941
▁tests	-1942
▁units	-1943
example	-1944
lection	-1945
▁single	-1946
▁survey	-1947
▁thread	-1948
umerical	-1949
▁2025-26	-1950
▁Research	-1951
▁document	-1952
▁processes	-1953
▁Performance	-1954
6.	-1955
97	-1956
ND	-1957
ih	-1958
esp	-1959
oid	-1960
▁RE	-1961
▁Bus	-1962
▁Sim	-1963
▁age	-1964
▁ben	-1965
▁ele	-1966
▁ins	-1967
clude	-1968
eomet	-1969
ified	-1970
light	-1971
oment	-1972
tices	-1973
tract	-1974
▁stor	-1975
▁year	-1976
ancial	-1977
onents	-1978
uccess	-1979
▁Kumar	-1980
▁QUERY	-1981
▁frequ	-1982
▁round	-1983
▁shall	-1984
estions	-1985
▁mental	-1986
DOCUMENT	-1987
▁Develop	-1988
▁Feature	-1989
▁factors	-1990
▁privacy	-1991
▁magnetic	-1992
▁question	-1993
▁255.255.2	-1994
▁prediction	-1995
▁determinant	-1996
2:	-1997
39	-1998
64	-1999
OS	-2000
SA	-2001
ots	-2002
ven	-2003
win	-2004
▁28	-2005
▁IC	-2006
elta	-2007
less	-2008
ness	-2009
ooth	-2010
▁Top	-2011
▁bet	-2012
▁cle	-2013
▁ent	-2014
▁run	-2015
ances	-2016
▁Open	-2017
verage	-2018
▁const	-2019
▁every	-2020
▁range	-2021
aracter	-2022
ibility	-2023
▁Require	-2024
▁formula	-2025
▁metrics	-2026
▁product	-2027
▁According	-2028
',	-2029
8)	-2030
▁~	-2031
gin	-2032
▁1)	-2033
▁\(	-2034
ivam	-2035
ivid	-2036
oenc	-2037
pose	-2038
ukan	-2039
wise	-2040
▁due	-2041
fully	-2042
▁Line	-2043
▁Mean	-2044
▁goal	-2045
▁life	-2046
▁must	-2047
▁node	-2048
▁poss	-2049
▁term	-2050
▁then	-2051
served	-2052
▁Appro	-2053
▁Light	-2054
▁study	-2055
▁Length	-2056
▁across	-2057
▁circle	-2058
▁conver	-2059
▁frames	-2060
▁control	-2061
▁initial	-2062
▁behavior	-2063
▁complete	-2064
▁Statement	-2065
▁structure	-2066
▁Programming	-2067
▁respondents	-2068
▁significant	-2069
▁Intelligence	-2070
▁relationships	-2071
0%	-2072
20	-2073
51	-2074
=\	-2075
ll	-2076
sc	-2077
0/1	-2078
The	-2079
reh	-2080
rel	-2081
tom	-2082
ton	-2083
▁0;	-2084
▁4,	-2085
ator	-2086
izon	-2087
tage	-2088
▁Acc	-2089
▁Ang	-2090
▁bas	-2091
▁ini	-2092
elati	-2093
idity	-2094
igned	-2095
▁COUR	-2096
▁Core	-2097
▁Week	-2098
▁bits	-2099
▁coil	-2100
▁comb	-2101
▁unit	-2102
encies	-2103
ersion	-2104
orizon	-2105
ployee	-2106
▁Solve	-2107
▁analy	-2108
▁array	-2109
▁block	-2110
ailable	-2111
erefore	-2112
ersonal	-2113
▁Define	-2114
▁Method	-2115
▁Search	-2116
▁module	-2117
▁Convert	-2118
▁concept	-2119
▁devices	-2120
▁support	-2121
▁various	-2122
aditional	-2123
roduction	-2124
▁Networks	-2125
▁adolescents	-2126
▁interaction	-2127
▁understanding	-2128
we	-2129
▁“	-2130
0.5	-2131
Net	-2132
PUT	-2133
add	-2134
amp	-2135
hen	-2136
back	-2137
ined	-2138
leep	-2139
ocal	-2140
▁API	-2141
▁OUT	-2142
▁sur	-2143
alary	-2144
aring	-2145
cepts	-2146
▁Hand	-2147
▁Pack	-2148
▁risk	-2149
ifting	-2150
tional	-2151
▁Minim	-2152
▁mengg	-2153
▁paper	-2154
▁stock	-2155
▁Design	-2156
▁Python	-2157
▁global	-2158
allenges	-2159
pagation	-2160
▁Default	-2161
▁continu	-2162
▁optimal	-2163
servation	-2164
▁Examples	-2165
▁Overview	-2166
▁database	-2167
▁Algorithm	-2168
▁financial	-2169
▁involving	-2170
▁platforms	-2171
▁Description	-2172
.)	-2173
08	-2174
1-	-2175
LD	-2176
do	-2177
me	-2178
no	-2179
UCT	-2180
^{(	-2181
ood	-2182
▁27	-2183
▁AC	-2184
▁ip	-2185
▁km	-2186
55.0	-2187
bers	-2188
circ	-2189
ffic	-2190
ived	-2191
pend	-2192
perv	-2193
ules	-2194
▁Air	-2195
▁hai	-2196
Linux	-2197
ailed	-2198
cerns	-2199
ernel	-2200
izing	-2201
▁file	-2202
▁plan	-2203
▁shap	-2204
atical	-2205
solute	-2206
ugment	-2207
▁Media	-2208
▁Under	-2209
▁final	-2210
▁terms	-2211
▁three	-2212
▁world	-2213
▁partic	-2214
▁period	-2215
▁should	-2216
portance	-2217
▁Compute	-2218
▁Summary	-2219
▁provide	-2220
▁tangent	-2221
▁virtual	-2222
▁tangents	-2223
▁magnitude	-2224
▁technologies	-2225
23	-2226
40	-2227
OD	-2228
Pr	-2229
302	-2230
:0]	-2231
=12	-2232
els	-2233
equ	-2234
kit	-2235
val	-2236
▁Di	-2237
▁sk	-2238
aily	-2239
alog	-2240
onom	-2241
pret	-2242
▁Dat	-2243
▁ach	-2244
▁cos	-2245
▁job	-2246
▁pie	-2247
▁rec	-2248
ocity	-2249
oints	-2250
▁Sign	-2251
▁deep	-2252
▁text	-2253
▁very	-2254
active	-2255
cision	-2256
▁cloud	-2257
▁layer	-2258
▁simpl	-2259
▁OUTPUT	-2260
▁centre	-2261
▁Testing	-2262
▁improve	-2263
▁Students	-2264
▁pipeline	-2265
▁Metaverse	-2266
▁efficient	-2267
▁transform	-2268
▁processing	-2269
▁applications	-2270
▁255.255.255.0	-2271
6,	-2272
8,	-2273
GP	-2274
▁$	-2275
ARY	-2276
LAN	-2277
amb	-2278
ler	-2279
num	-2280
▁fe	-2281
alah	-2282
erts	-2283
oice	-2284
resp	-2285
word	-2286
▁cap	-2287
▁enh	-2288
▁imm	-2289
▁seb	-2290
aries	-2291
comes	-2292
inter	-2293
ional	-2294
onstr	-2295
▁reli	-2296
apture	-2297
▁COVID	-2298
▁Total	-2299
▁Value	-2300
▁depic	-2301
▁limit	-2302
▁route	-2303
certain	-2304
ryption	-2305
▁Future	-2306
▁printf	-2307
▁radius	-2308
▁server	-2309
▁Measure	-2310
▁Results	-2311
▁physical	-2312
▁Therefore	-2313
▁192.168.10	-2314
▁Artificial	-2315
▁Evaluation	-2316
▁resistance	-2317
▁Applications	-2318
▁environments	-2319
(\	-2320
25	-2321
RT	-2322
^\	-2323
af	-2324
},	-2325
)..	-2326
EST	-2327
UNT	-2328
ces	-2329
sin	-2330
▁36	-2331
▁Co	-2332
▁IS	-2333
▁fl	-2334
▁gu	-2335
nown	-2336
ores	-2337
vari	-2338
▁Are	-2339
▁One	-2340
▁Rem	-2341
▁Web	-2342
▁neg	-2343
▁pri	-2344
ecast	-2345
ended	-2346
olved	-2347
ustri	-2348
▁Ping	-2349
ameter	-2350
fessor	-2351
▁Autom	-2352
▁Input	-2353
▁citra	-2354
▁would	-2355
centage	-2356
resents	-2357
▁Normal	-2358
▁commun	-2359
▁detect	-2360
oencoder	-2361
otential	-2362
perature	-2363
oplifting	-2364
▁Security	-2365
▁commands	-2366
▁Objective	-2367
▁evaluation	-2368
▁satellites	-2369
▁Engineering	-2370
▁probability	-2371
▁respiration	-2372
▁Requirements	-2373
▁architecture	-2374
7)	-2375
AD	-2376
pr	-2377
100	-2378
_2)	-2379
_2,	-2380
arr	-2381
ele	-2382
ger	-2383
oga	-2384
▁Fa	-2385
arge	-2386
eman	-2387
play	-2388
rice	-2389
▁0.9	-2390
▁Log	-2391
▁Run	-2392
▁pay	-2393
▁ret	-2394
arget	-2395
ately	-2396
ender	-2397
ipher	-2398
posed	-2399
▁0.00	-2400
▁Code	-2401
▁Cons	-2402
▁been	-2403
▁caus	-2404
▁educ	-2405
▁grad	-2406
▁grow	-2407
▁uses	-2408
ansion	-2409
▁Drain	-2410
▁Force	-2411
▁Notes	-2412
▁along	-2413
▁cross	-2414
elocity	-2415
▁GRADES	-2416
▁better	-2417
▁ensure	-2418
▁linear	-2419
▁select	-2420
ependent	-2421
junction	-2422
ological	-2423
▁Systems	-2424
▁voltage	-2425
▁Features	-2426
▁Problems	-2427
▁Solution	-2428
▁sequence	-2429
▁specific	-2430
▁Interface	-2431
▁Magnitude	-2432
▁Resultant	-2433
▁available	-2434
▁efficiency	-2435
▁computation	-2436
▁Architecture	-2437
33	-2438
DP	-2439
Tr	-2440
io	-2441
nt	-2442
}=	-2443
Con	-2444
ING	-2445
doi	-2446
icy	-2447
ift	-2448
ody	-2449
txt	-2450
ugg	-2451
ump	-2452
▁35	-2453
▁<=	-2454
▁XR	-2455
▁pp	-2456
angu	-2457
ides	-2458
ival	-2459
▁10,	-2460
▁DNS	-2461
▁day	-2462
▁msg	-2463
▁syn	-2464
alpha	-2465
ublic	-2466
▁Conn	-2467
▁Spec	-2468
▁Type	-2469
▁code	-2470
▁disc	-2471
▁lead	-2472
▁scal	-2473
▁self	-2474
ograph	-2475
tering	-2476
ditions	-2477
uristic	-2478
▁Retail	-2479
▁Visual	-2480
▁statis	-2481
▁verify	-2482
▁Control	-2483
▁program	-2484
abilities	-2485
▁192.168.	-2486
▁Identify	-2487
▁depicted	-2488
▁Computing	-2489
▁commodity	-2490
▁Experiment	-2491
▁Processing	-2492
▁application	-2493
▁menggunakan	-2494
▁implementation	-2495
)/	-2496
48	-2497
7,	-2498
ox	-2499
ze	-2500
{\	-2501
▁]	-2502
0).	-2503
=32	-2504
bed	-2505
rid	-2506
sec	-2507
top	-2508
▁23	-2509
▁Or	-2510
▁Sm	-2511
▁el	-2512
ales	-2513
fact	-2514
ieve	-2515
izer	-2516
ream	-2517
▁GNN	-2518
▁MAE	-2519
▁Str	-2520
▁TLE	-2521
▁ess	-2522
▁way	-2523
amily	-2524
omain	-2525
other	-2526
▁Pass	-2527
▁Prov	-2528
▁Quan	-2529
▁cult	-2530
▁list	-2531
▁util	-2532
ersive	-2533
▁Water	-2534
▁benef	-2535
▁nodes	-2536
▁solve	-2537
▁there	-2538
cussion	-2539
include	-2540
▁Differ	-2541
▁Report	-2542
▁errors	-2543
▁prices	-2544
▁record	-2545
elatihan	-2546
▁Machine	-2547
▁Underst	-2548
▁applied	-2549
▁because	-2550
▁effects	-2551
certainty	-2552
rehensive	-2553
▁STUDENTS	-2554
▁forecast	-2555
▁transmit	-2556
▁responses	-2557
▁Conditioner	-2558
▁Deliverable	-2559
▁dimensional	-2560
▁Introduction	-2561
▁technological	-2562
18	-2563
26	-2564
75	-2565
9)	-2566
An	-2567
II	-2568
IL	-2569
QL	-2570
Sc	-2571
Sh	-2572
gh	-2573
ana	-2574
box	-2575
cos	-2576
esk	-2577
map	-2578
pdf	-2579
raw	-2580
ume	-2581
▁26	-2582
▁A⃗	-2583
▁BY	-2584
▁SI	-2585
▁ec	-2586
▁sl	-2587
abol	-2588
care	-2589
conn	-2590
idth	-2591
ikes	-2592
ions	-2593
ivot	-2594
poch	-2595
raud	-2596
▁3.1	-2597
▁Can	-2598
▁Exp	-2599
▁Two	-2600
▁Yes	-2601
▁acc	-2602
▁adj	-2603
▁gre	-2604
UCTOR	-2605
bound	-2606
ually	-2607
▁Sequ	-2608
▁ampl	-2609
▁days	-2610
▁edge	-2611
▁ener	-2612
▁perf	-2613
ESTION	-2614
akukan	-2615
▁begin	-2616
▁chord	-2617
▁hours	-2618
▁times	-2619
▁track	-2620
asoning	-2621
▁Errors	-2622
▁change	-2623
▁future	-2624
▁switch	-2625
STRUCTOR	-2626
ectivity	-2627
▁message	-2628
▁trained	-2629
▁QUESTION	-2630
▁Validate	-2631
▁business	-2632
▁generate	-2633
▁response	-2634
▁Direction	-2635
▁Important	-2636
▁Relations	-2637
▁essential	-2638
▁expansion	-2639
▁potential	-2640
▁Attributes	-2641
▁distribution	-2642
",	-2643
,.	-2644
1(	-2645
4:	-2646
DF	-2647
by	-2648
2.2	-2649
:00	-2650
Pro	-2651
SES	-2652
ane	-2653
gre	-2654
iev	-2655
ral	-2656
tif	-2657
xim	-2658
▁ax	-2659
Tick	-2660
down	-2661
oper	-2662
orch	-2663
quis	-2664
vers	-2665
▁AND	-2666
▁Min	-2667
▁ans	-2668
▁tim	-2669
abola	-2670
echan	-2671
level	-2672
udent	-2673
undam	-2674
xiety	-2675
▁From	-2676
▁Mass	-2677
▁Trac	-2678
▁band	-2679
▁move	-2680
▁Enter	-2681
▁Write	-2682
▁after	-2683
▁equal	-2684
anguage	-2685
▁Sensor	-2686
▁client	-2687
▁engine	-2688
▁forest	-2689
▁subnet	-2690
▁advance	-2691
▁success	-2692
▁version	-2693
▁Accuracy	-2694
▁Employee	-2695
▁provides	-2696
▁security	-2697
undamental	-2698
▁knowledge	-2699
▁transaction	-2700
88	-2701
?.	-2702
En	-2703
TE	-2704
'),	-2705
)).	-2706
-1)	-2707
0.3	-2708
OIN	-2709
_1)	-2710
day	-2711
ges	-2712
ran	-2713
ung	-2714
−1]	-2715
▁(3	-2716
▁00	-2717
▁3,	-2718
▁Ag	-2719
▁es	-2720
COUR	-2721
ored	-2722
rast	-2723
sues	-2724
▁10−	-2725
▁500	-2726
▁BFS	-2727
▁Sin	-2728
▁You	-2729
▁pur	-2730
▁who	-2731
delta	-2732
eliti	-2733
ports	-2734
▁Deep	-2735
▁JOIN	-2736
▁Vari	-2737
▁coun	-2738
▁exec	-2739
▁feel	-2740
▁full	-2741
▁pack	-2742
▁role	-2743
▁wait	-2744
Socket	-2745
curate	-2746
esktop	-2747
hentic	-2748
ources	-2749
ynamic	-2750
▁Frame	-2751
▁Limit	-2752
▁Point	-2753
▁Price	-2754
▁Surve	-2755
▁pivot	-2756
▁sleep	-2757
anation	-2758
omentum	-2759
ressure	-2760
ustrial	-2761
▁Config	-2762
▁binary	-2763
▁issues	-2764
▁making	-2765
atically	-2766
ectively	-2767
gorithms	-2768
▁2023511	-2769
▁capture	-2770
▁inverse	-2771
▁showing	-2772
▁required	-2773
▁Knowledge	-2774
▁sentences	-2775
▁depression	-2776
▁interactions	-2777
1/	-2778
2=	-2779
EM	-2780
EY	-2781
],	-2782
▁@	-2783
.22	-2784
Mix	-2785
ner	-2786
▁5:	-2787
▁60	-2788
▁7:	-2789
▁Ro	-2790
ABLE	-2791
acts	-2792
ames	-2793
avig	-2794
bove	-2795
ires	-2796
izes	-2797
mark	-2798
osis	-2799
plit	-2800
quad	-2801
roup	-2802
rypt	-2803
tern	-2804
▁Hum	-2805
▁IPv	-2806
▁Inf	-2807
▁Mem	-2808
▁Pay	-2809
▁Wiz	-2810
▁top	-2811
ators	-2812
ranch	-2813
ready	-2814
rices	-2815
▁Here	-2816
▁Real	-2817
▁Resp	-2818
▁take	-2819
weight	-2820
▁Given	-2821
▁above	-2822
▁daily	-2823
▁dapat	-2824
▁least	-2825
▁sched	-2826
eration	-2827
hematic	-2828
▁Before	-2829
▁Wizard	-2830
▁energy	-2831
▁groups	-2832
▁volati	-2833
pervised	-2834
▁Compare	-2835
▁Teacher	-2836
▁minimal	-2837
▁Societal	-2838
▁peneliti	-2839
▁positive	-2840
▁Component	-2841
▁dashboard	-2842
▁remaining	-2843
▁Functional	-2844
▁quantities	-2845
▁forecasting	-2846
▁connectivity	-2847
++	-2848
-3	-2849
45	-2850
=(	-2851
MA	-2852
RE	-2853
TL	-2854
co	-2855
arm	-2856
hic	-2857
ket	-2858
▁2)	-2859
▁6:	-2860
▁8:	-2861
▁Am	-2862
▁MS	-2863
▁ak	-2864
▁cp	-2865
▁mo	-2866
0.46	-2867
Dist	-2868
Tock	-2869
itiv	-2870
▁0.8	-2871
▁KEY	-2872
▁Non	-2873
▁Ser	-2874
▁lik	-2875
▁min	-2876
2.251	-2877
chron	-2878
gment	-2879
tocol	-2880
▁Adam	-2881
▁Back	-2882
▁List	-2883
▁area	-2884
▁case	-2885
▁exam	-2886
▁fast	-2887
▁load	-2888
▁pati	-2889
▁ping	-2890
▁sugg	-2891
▁ters	-2892
ically	-2893
tained	-2894
ulated	-2895
▁Check	-2896
▁India	-2897
▁Power	-2898
▁World	-2899
▁activ	-2900
▁fixed	-2901
▁fraud	-2902
▁reach	-2903
▁types	-2904
▁usage	-2905
▁water	-2906
ductive	-2907
osition	-2908
ownload	-2909
respond	-2910
variate	-2911
▁events	-2912
▁object	-2913
▁source	-2914
2.251.22	-2915
▁diagram	-2916
▁signals	-2917
▁society	-2918
fessional	-2919
▁Commands	-2920
▁concerns	-2921
▁position	-2922
▁Reference	-2923
hentication	-2924
▁components	-2925
▁understand	-2926
46	-2927
95	-2928
:\	-2929
GT	-2930
gu	-2931
js	-2932
▁—	-2933
▁⋅	-2934
EEE	-2935
HER	-2936
asy	-2937
eks	-2938
inc	-2939
nya	-2940
que	-2941
▁74	-2942
▁AD	-2943
▁Cy	-2944
▁Ed	-2945
▁PM	-2946
▁UN	-2947
▁ti	-2948
adem	-2949
oose	-2950
ough	-2951
umns	-2952
▁Cor	-2953
▁DFS	-2954
▁GPU	-2955
▁Reg	-2956
▁bit	-2957
▁mel	-2958
▁num	-2959
aging	-2960
arrow	-2961
ogram	-2962
place	-2963
▁Case	-2964
▁Mark	-2965
▁Rece	-2966
▁Size	-2967
▁Sort	-2968
▁They	-2969
▁VLAN	-2970
▁name	-2971
▁next	-2972
ategor	-2973
entity	-2974
istics	-2975
mental	-2976
▁Apply	-2977
▁Impro	-2978
▁Incre	-2979
▁TABLE	-2980
▁Table	-2981
▁Unity	-2982
▁among	-2983
▁gives	-2984
▁large	-2985
▁local	-2986
▁plain	-2987
▁years	-2988
STUDENT	-2989
emantic	-2990
eometry	-2991
▁Course	-2992
▁alerts	-2993
▁course	-2994
▁higher	-2995
▁COURSES	-2996
▁anxiety	-2997
▁example	-2998
▁minimum	-2999
▁working	-3000
▁Absolute	-3001
▁concepts	-3002
▁planning	-3003
▁Practical	-3004
▁operation	-3005
Distributed	-3006
▁142.251.22	-3007
▁Comparison	-3008
▁complexity	-3009
▁conditions	-3010
▁correspond	-3011
▁penelitian	-3012
▁Observation	-3013
▁independent	-3014
▁respiratory	-3015
66	-3016
7%	-3017
9,	-3018
}\	-3019
SON	-3020
eep	-3021
eta	-3022
ika	-3023
▁37	-3024
▁Mo	-3025
▁NO	-3026
▁OF	-3027
▁bi	-3028
alam	-3029
aran	-3030
ateg	-3031
imes	-3032
lete	-3033
oung	-3034
▁Adv	-3035
▁Tip	-3036
▁div	-3037
▁etc	-3038
aving	-3039
enced	-3040
faces	-3041
istor	-3042
model	-3043
▁Echo	-3044
▁Rate	-3045
▁axis	-3046
▁core	-3047
▁orig	-3048
▁view	-3049
COURSE	-3050
istive	-3051
ournal	-3052
thetic	-3053
▁align	-3054
▁helps	-3055
▁match	-3056
▁tasks	-3057
▁treat	-3058
▁Matrix	-3059
▁Static	-3060
▁called	-3061
▁cipher	-3062
▁review	-3063
▁Initial	-3064
▁Maximum	-3065
▁context	-3066
▁current	-3067
▁extract	-3068
▁samples	-3069
▁Velocity	-3070
▁benefits	-3071
▁insights	-3072
▁personal	-3073
▁Professor	-3074
▁education	-3075
▁heuristic	-3076
resentation	-3077
▁automation	-3078
▁deployment	-3079
▁predictions	-3080
▁Preprocessing	-3081
▁142.251.220.46	-3082
0:	-3083
37	-3084
AM	-3085
CP	-3086
LT	-3087
):.	-3088
714	-3089
fit	-3090
get	-3091
ope	-3092
red	-3093
rup	-3094
var	-3095
vem	-3096
}{\	-3097
ROUP	-3098
akes	-3099
asil	-3100
flow	-3101
hold	-3102
lity	-3103
▁1.5	-3104
▁11.	-3105
▁3.2	-3106
▁End	-3107
▁HMM	-3108
▁med	-3109
▁sep	-3110
antum	-3111
asing	-3112
aster	-3113
https	-3114
igure	-3115
imary	-3116
▁Link	-3117
▁Lock	-3118
▁PART	-3119
▁Part	-3120
▁Sing	-3121
▁Used	-3122
▁base	-3123
▁cout	-3124
▁feed	-3125
▁meas	-3126
▁prog	-3127
▁what	-3128
▁zero	-3129
0.0/24	-3130
chmark	-3131
oining	-3132
▁Analy	-3133
▁Cross	-3134
▁Email	-3135
▁image	-3136
▁navig	-3137
▁often	-3138
▁sever	-3139
ectives	-3140
ritical	-3141
▁Packet	-3142
▁achiev	-3143
▁growth	-3144
▁Current	-3145
▁Horizon	-3146
▁Install	-3147
▁quality	-3148
▁returns	-3149
Documents	-3150
▁consider	-3151
▁demonstr	-3152
▁location	-3153
▁receiver	-3154
▁Numerical	-3155
▁including	-3156
▁influence	-3157
▁variables	-3158
▁Percentage	-3159
▁statistics	-3160
▁uncertainty	-3161
▁dependencies	-3162
▁transmission	-3163
▁Implementation	-3164
(1	-3165
."	-3166
/2	-3167
4%	-3168
9.	-3169
Al	-3170
DI	-3171
IP	-3172
LI	-3173
Ld	-3174
])	-3175
rc	-3176
tu	-3177
▁̃	-3178
▁θ	-3179
0/0	-3180
cor	-3181
def	-3182
lab	-3183
oci	-3184
oor	-3185
phi	-3186
tig	-3187
▁AR	-3188
▁cr	-3189
302(	-3190
Time	-3191
ello	-3192
ones	-3193
ront	-3194
site	-3195
step	-3196
▁0.5	-3197
▁12.	-3198
▁802	-3199
▁Cut	-3200
▁Ext	-3201
▁bal	-3202
▁bar	-3203
▁dil	-3204
▁max	-3205
▁obj	-3206
0,000	-3207
0.00,	-3208
abled	-3209
annel	-3210
ecess	-3211
ished	-3212
ordin	-3213
point	-3214
wards	-3215
▁Days	-3216
▁Show	-3217
▁With	-3218
▁good	-3219
▁prev	-3220
▁sort	-3221
ration	-3222
ructor	-3223
second	-3224
uffles	-3225
urther	-3226
varphi	-3227
▁GROUP	-3228
▁break	-3229
▁elect	-3230
▁exact	-3231
▁noise	-3232
ividual	-3233
perties	-3234
riangle	-3235
▁Access	-3236
▁Shivam	-3237
▁Tensor	-3238
▁actual	-3239
▁correl	-3240
▁simple	-3241
▁stress	-3242
▁strong	-3243
▁Command	-3244
▁default	-3245
▁maximum	-3246
▁methods	-3247
▁reports	-3248
▁storage	-3249
istorical	-3250
▁Software	-3251
▁cultural	-3252
▁customer	-3253
▁elements	-3254
▁networks	-3255
▁simplify	-3256
▁software	-3257
▁alignment	-3258
▁developed	-3259
▁interface	-3260
▁inventory	-3261
▁resultant	-3262
▁comparison	-3263
aracteristics	-3264
▁visualization	-3265
-5	-3266
09	-3267
42	-3268
:-	-3269
AV	-3270
Ad	-3271
MS	-3272
Os	-3273
^2	-3274
};	-3275
−1	-3276
END	-3277
bih	-3278
cle	-3279
mac	-3280
ote	-3281
ych	-3282
▁By	-3283
▁cS	-3284
LSTM	-3285
aken	-3286
ashm	-3287
auss	-3288
ebut	-3289
ious	-3290
irus	-3291
loud	-3292
onia	-3293
ries	-3294
size	-3295
▁AES	-3296
▁Fil	-3297
▁Let	-3298
▁PMU	-3299
▁Pol	-3300
▁ber	-3301
▁bur	-3302
▁car	-3303
▁imp	-3304
being	-3305
ening	-3306
tings	-3307
width	-3308
▁Area	-3309
▁MSME	-3310
▁Read	-3311
▁When	-3312
▁body	-3313
▁last	-3314
▁rect	-3315
▁serv	-3316
ground	-3317
tition	-3318
umonia	-3319
▁COUNT	-3320
▁Range	-3321
▁Space	-3322
Teacher	-3323
lexible	-3324
▁Derive	-3325
▁active	-3326
▁format	-3327
▁mechan	-3328
▁public	-3329
▁Average	-3330
▁Dataset	-3331
▁Process	-3332
▁Society	-3333
▁changed	-3334
▁meaning	-3335
▁numbers	-3336
▁pattern	-3337
▁threads	-3338
▁Addition	-3339
▁Approach	-3340
▁accurate	-3341
▁communic	-3342
▁contains	-3343
▁designed	-3344
▁parabola	-3345
▁possible	-3346
▁products	-3347
▁tersebut	-3348
Department	-3349
tification	-3350
▁Attention	-3351
▁directrix	-3352
▁evaluated	-3353
▁functions	-3354
▁generated	-3355
▁highlight	-3356
▁pelatihan	-3357
▁Deployment	-3358
▁Importance	-3359
▁classifier	-3360
▁consistent	-3361
▁continuous	-3362
▁healthcare	-3363
▁Methodology	-3364
▁integration	-3365
▁Deliverables	-3366
▁intelligence	-3367
->	-3368
6)	-3369
8%	-3370
sv	-3371
▁±	-3372
▁√	-3373
018	-3374
INT	-3375
bra	-3376
ded	-3377
gan	-3378
ism	-3379
len	-3380
▁As	-3381
0.2:	-3382
_{12	-3383
cise	-3384
ktur	-3385
open	-3386
sych	-3387
▁4.1	-3388
▁Law	-3389
▁Mix	-3390
▁SQL	-3391
▁Why	-3392
▁emp	-3393
▁ide	-3394
▁let	-3395
▁ref	-3396
▁sym	-3397
ATION	-3398
START	-3399
class	-3400
conom	-3401
gebra	-3402
hicle	-3403
poral	-3404
ueens	-3405
▁2000	-3406
▁Fact	-3407
▁JSON	-3408
▁Mask	-3409
▁Risk	-3410
▁Rule	-3411
▁Your	-3412
▁akur	-3413
▁dise	-3414
▁done	-3415
▁flow	-3416
▁miss	-3417
▁shut	-3418
bedded	-3419
itable	-3420
vember	-3421
▁802.1	-3422
▁Cloud	-3423
▁Focus	-3424
▁Group	-3425
▁Norms	-3426
▁Teach	-3427
▁Types	-3428
▁agent	-3429
▁bound	-3430
▁child	-3431
▁decre	-3432
▁hasil	-3433
▁human	-3434
▁learn	-3435
▁pairs	-3436
▁query	-3437
▁rates	-3438
▁spend	-3439
ameters	-3440
illance	-3441
reshold	-3442
ruction	-3443
▁Econom	-3444
▁Salary	-3445
▁cannot	-3446
▁device	-3447
▁econom	-3448
▁effect	-3449
▁needed	-3450
echnical	-3451
hematics	-3452
sitektur	-3453
training	-3454
▁Diagram	-3455
▁sensors	-3456
▁updates	-3457
pretation	-3458
ugmentasi	-3459
▁Distance	-3460
▁Expected	-3461
▁November	-3462
▁increase	-3463
▁obtained	-3464
estination	-3465
▁202351130	-3466
▁Commodity	-3467
▁Inventory	-3468
▁Precision	-3469
▁documents	-3470
▁Discussion	-3471
▁generation	-3472
▁individual	-3473
▁techniques	-3474
▁validation	-3475
▁Interaction	-3476
▁Transaction	-3477
▁autoencoder	-3478
▁fundamental	-3479
▁programming	-3480
▁traditional	-3481
▁Distribution	-3482
▁successfully	-3483
▁Understanding	-3484
▁preprocessing	-3485
28	-3486
3(	-3487
CD	-3488
Cl	-3489
Op	-3490
Th	-3491
UC	-3492
ii	-3493
ij	-3494
▁–	-3495
▁≡	-3496
5.2	-3497
=0,	-3498
Emp	-3499
ORT	-3500
WOR	-3501
any	-3502
enu	-3503
hal	-3504
ibr	-3505
ict	-3506
lec	-3507
une	-3508
▁53	-3509
▁64	-3510
▁80	-3511
▁DE	-3512
▁PR	-3513
▁Ph	-3514
▁ve	-3515
IIIT	-3516
MPLE	-3517
aitu	-3518
arts	-3519
book	-3520
clud	-3521
comm	-3522
eksi	-3523
ensh	-3524
ergy	-3525
ever	-3526
inct	-3527
like	-3528
real	-3529
rief	-3530
test	-3531
year	-3532
yper	-3533
▁13.	-3534
▁4.2	-3535
▁Enh	-3536
▁Low	-3537
▁Mis	-3538
▁Row	-3539
▁UPI	-3540
▁VAL	-3541
▁bot	-3542
▁cur	-3543
▁del	-3544
▁eth	-3545
▁few	-3546
atisf	-3547
ayers	-3548
edium	-3549
hecks	-3550
ripts	-3551
▁Atom	-3552
▁Loss	-3553
▁Twin	-3554
▁care	-3555
▁draw	-3556
▁link	-3557
▁open	-3558
▁pres	-3559
▁rest	-3560
▁shop	-3561
▁tool	-3562
Design	-3563
lected	-3564
ressed	-3565
▁Batch	-3566
▁Chang	-3567
▁First	-3568
▁Reduc	-3569
▁Start	-3570
▁avoid	-3571
▁cases	-3572
▁count	-3573
▁epoch	-3574
▁estim	-3575
▁files	-3576
▁joint	-3577
▁latus	-3578
▁maxim	-3579
▁speed	-3580
▁users	-3581
▁yaitu	-3582
itivity	-3583
ography	-3584
▁Hidden	-3585
▁Source	-3586
▁family	-3587
▁rectum	-3588
▁series	-3589
▁socket	-3590
▁stable	-3591
▁within	-3592
neumonia	-3593
▁Devices	-3594
▁Payment	-3595
▁Science	-3596
▁details	-3597
▁entries	-3598
▁include	-3599
▁periods	-3600
▁present	-3601
▁request	-3602
▁studies	-3603
▁Business	-3604
▁Momentum	-3605
▁Observed	-3606
▁feedback	-3607
▁humidity	-3608
▁includes	-3609
▁outcomes	-3610
▁temporal	-3611
▁vertices	-3612
▁Functions	-3613
▁frequency	-3614
▁questions	-3615
▁treatment	-3616
▁INSTRUCTOR	-3617
▁challenges	-3618
▁collisions	-3619
▁influenced	-3620
▁navigation	-3621
▁represents	-3622
▁volatility	-3623
▁measurement	-3624
▁optimization	-3625
▁comprehensive	-3626
▁corresponding	-3627
--	-3628
-\	-3629
.-	-3630
53	-3631
89	-3632
CH	-3633
Ex	-3634
FF	-3635
KS	-3636
LL	-3637
PS	-3638
au	-3639
cc	-3640
ha	-3641
0.6	-3642
ANG	-3643
_2=	-3644
ird	-3645
min	-3646
www	-3647
▁45	-3648
▁46	-3649
▁7,	-3650
▁90	-3651
▁EX	-3652
▁GF	-3653
▁Li	-3654
▁OS	-3655
▁PS	-3656
▁Sl	-3657
▁wr	-3658
Back	-3659
aced	-3660
icks	-3661
ogle	-3662
orad	-3663
pers	-3664
ript	-3665
with	-3666
zing	-3667
▁COv	-3668
▁CPI	-3669
▁DES	-3670
▁New	-3671
▁OSP	-3672
▁[15	-3673
▁fit	-3674
▁had	-3675
▁mov	-3676
▁seq	-3677
/10.1	-3678
eries	-3679
gence	-3680
ivers	-3681
obile	-3682
ocker	-3683
ufact	-3684
▁(200	-3685
▁(201	-3686
▁Educ	-3687
▁Goal	-3688
▁Grad	-3689
▁IEEE	-3690
▁Pada	-3691
▁Thus	-3692
▁True	-3693
▁VALU	-3694
▁clos	-3695
▁does	-3696
▁fail	-3697
▁near	-3698
▁sess	-3699
▁turn	-3700
▁yoga	-3701
atalog	-3702
ecting	-3703
ensity	-3704
istant	-3705
router	-3706
vation	-3707
▁Accel	-3708
▁After	-3709
▁Gauss	-3710
▁Local	-3711
▁Since	-3712
▁Units	-3713
▁burst	-3714
▁cyber	-3715
▁known	-3716
▁score	-3717
▁simil	-3718
▁smart	-3719
iration	-3720
ireless	-3721
utation	-3722
▁Device	-3723
▁Direct	-3724
▁Energy	-3725
▁Object	-3726
▁Scalar	-3727
▁Subnet	-3728
▁Survey	-3729
▁fields	-3730
▁kernel	-3731
▁points	-3732
▁trends	-3733
endering	-3734
▁Angular	-3735
▁Explain	-3736
▁Identif	-3737
▁Program	-3738
▁compare	-3739
▁explore	-3740
▁Teachers	-3741
▁findings	-3742
▁improved	-3743
▁internet	-3744
▁language	-3745
▁measured	-3746
▁observed	-3747
▁shutdown	-3748
▁tracking	-3749
▁Framework	-3750
▁Technolog	-3751
▁WebSocket	-3752
▁amplitude	-3753
▁component	-3754
▁numerical	-3755
▁practical	-3756
▁reasoning	-3757
▁threshold	-3758
rastructure	-3759
▁Assignment	-3760
▁Classifier	-3761
▁adolescent	-3762
▁algorithms	-3763
▁dimensions	-3764
▁experience	-3765
▁Measurement	-3766
▁Shoplifting	-3767
▁explanation	-3768
▁advancements	-3769
▁professional	-3770
▁requirements	-3771
(&	-3772
29	-3773
54	-3774
Ch	-3775
GB	-3776
NF	-3777
PA	-3778
PT	-3779
TH	-3780
YS	-3781
]:	-3782
bu	-3783
cm	-3784
cy	-3785
eu	-3786
go	-3787
rd	-3788
uj	-3789
yB	-3790
▁)	-3791
▁‘	-3792
Col	-3793
IME	-3794
ULL	-3795
abl	-3796
emp	-3797
ena	-3798
nov	-3799
opy	-3800
set	-3801
▁//	-3802
▁1-	-3803
▁1/	-3804
▁31	-3805
▁9:	-3806
▁AI	-3807
▁Bo	-3808
▁DH	-3809
▁El	-3810
▁UI	-3811
-202	-3812
aved	-3813
bank	-3814
comp	-3815
cont	-3816
cuss	-3817
etch	-3818
evel	-3819
heet	-3820
ists	-3821
itle	-3822
onse	-3823
osit	-3824
utes	-3825
yBox	-3826
▁(10	-3827
▁0.7	-3828
▁10:	-3829
▁2.1	-3830
▁209	-3831
▁400	-3832
▁AUC	-3833
▁Blu	-3834
▁FOR	-3835
▁Now	-3836
▁RTT	-3837
▁[0,	-3838
▁app	-3839
▁got	-3840
▁rab	-3841
▁sum	-3842
▁typ	-3843
GRADE	-3844
WORLD	-3845
ather	-3846
ently	-3847
force	-3848
ining	-3849
oices	-3850
riend	-3851
texts	-3852
utive	-3853
▁2026	-3854
▁Home	-3855
▁ICMP	-3856
▁Prof	-3857
▁desc	-3858
▁easy	-3859
▁else	-3860
▁just	-3861
▁part	-3862
▁post	-3863
▁root	-3864
▁rule	-3865
▁send	-3866
▁twin	-3867
posite	-3868
utions	-3869
▁Angle	-3870
▁Effic	-3871
▁Elect	-3872
▁Title	-3873
▁Video	-3874
▁again	-3875
▁alert	-3876
▁areas	-3877
▁arriv	-3878
▁cache	-3879
▁could	-3880
▁edges	-3881
▁event	-3882
▁fully	-3883
▁heart	-3884
▁lebih	-3885
▁share	-3886
▁shown	-3887
▁those	-3888
▁train	-3889
arginal	-3890
ception	-3891
student	-3892
▁10,000	-3893
▁Remove	-3894
▁Signal	-3895
▁Simple	-3896
▁VALUES	-3897
▁action	-3898
▁around	-3899
▁associ	-3900
▁become	-3901
▁config	-3902
▁confir	-3903
▁cycles	-3904
▁having	-3905
▁sample	-3906
▁string	-3907
national	-3908
ructions	-3909
▁Complex	-3910
▁Desktop	-3911
▁Minimum	-3912
▁Suppose	-3913
▁another	-3914
▁average	-3915
▁enhance	-3916
▁further	-3917
▁several	-3918
▁suggest	-3919
▁Provides	-3920
▁Transmit	-3921
▁challeng	-3922
▁compared	-3923
▁computer	-3924
▁handling	-3925
▁internal	-3926
▁measures	-3927
▁negative	-3928
▁parallel	-3929
▁reliable	-3930
▁shortest	-3931
▁terminal	-3932
▁Configure	-3933
▁Questions	-3934
▁Structure	-3935
▁condition	-3936
▁immersive	-3937
▁performed	-3938
▁practices	-3939
▁satellite	-3940
▁Conversion	-3941
▁Objectives	-3942
▁Quantities	-3943
▁extraction	-3944
▁functional	-3945
▁Application	-3946
▁conjunction	-3947
▁distributed	-3948
▁propagation	-3949
▁temperature	-3950
▁functionality	-3951
')	-3952
(0	-3953
1}	-3954
34	-3955
63	-3956
9%	-3957
:1	-3958
DA	-3959
ED	-3960
Fi	-3961
If	-3962
We	-3963
nn	-3964
pi	-3965
▁∣	-3966
00)	-3967
285	-3968
ATE	-3969
CES	-3970
DPC	-3971
ONG	-3972
aan	-3973
agi	-3974
ama	-3975
ano	-3976
aps	-3977
ced	-3978
ead	-3979
eck	-3980
ims	-3981
iny	-3982
met	-3983
oms	-3984
pri	-3985
sub	-3986
uch	-3987
uss	-3988
▁#2	-3989
▁0]	-3990
▁1;	-3991
▁47	-3992
▁51	-3993
▁6,	-3994
▁72	-3995
▁OR	-3996
▁bu	-3997
▁kg	-3998
▁ph	-3999
apid	-4000
atan	-4001
axis	-4002
case	-4003
icro	-4004
ills	-4005
ingu	-4006
left	-4007
osts	-4008
ring	-4009
▁(1,	-4010
▁(3)	-4011
▁1.1	-4012
▁4.3	-4013
▁ALO	-4014
▁Eth	-4015
▁Mon	-4016
▁Tem	-4017
▁Vol	-4018
▁[1]	-4019
▁[2]	-4020
▁cpu	-4021
▁off	-4022
▁tan	-4023
▁tra	-4024
▁web	-4025
^{(1)	-4026
adian	-4027
agnet	-4028
arity	-4029
array	-4030
first	-4031
ideos	-4032
iding	-4033
iform	-4034
ormal	-4035
riven	-4036
utton	-4037
▁100,	-4038
▁Date	-4039
▁Exec	-4040
▁June	-4041
▁OSPF	-4042
▁Port	-4043
▁Term	-4044
▁Turn	-4045
▁conv	-4046
▁head	-4047
▁mill	-4048
▁once	-4049
▁page	-4050
▁peng	-4051
▁rele	-4052
_{12}(	-4053
ommend	-4054
strain	-4055
ustain	-4056
▁Field	-4057
▁MSMEs	-4058
▁Query	-4059
▁Setup	-4060
▁While	-4061
▁added	-4062
▁board	-4063
▁dalam	-4064
▁diagn	-4065
▁index	-4066
▁logic	-4067
▁place	-4068
▁ready	-4069
▁separ	-4070
ampling	-4071
ashmika	-4072
related	-4073
ynamics	-4074
ynchron	-4075
▁Health	-4076
▁Memory	-4077
▁Modern	-4078
▁Repeat	-4079
▁Review	-4080
▁SELEGT	-4081
▁accept	-4082
▁conduc	-4083
▁expect	-4084
▁graphs	-4085
▁likely	-4086
▁retail	-4087
▁satisf	-4088
▁smooth	-4089
▁BusyBox	-4090
▁Environ	-4091
▁Overall	-4092
▁Routerl	-4093
▁command	-4094
▁overall	-4095
▁regimes	-4096
▁respons	-4097
▁shallow	-4098
▁Gaussian	-4099
▁Handling	-4100
▁Platform	-4101
▁Position	-4102
▁Standard	-4103
▁constant	-4104
▁detailed	-4105
▁distinct	-4106
▁gradient	-4107
▁interact	-4108
▁particip	-4109
▁pressure	-4110
▁suitable	-4111
▁Increment	-4112
▁filtering	-4113
▁increased	-4114
▁inference	-4115
▁melakukan	-4116
▁Additional	-4117
▁Challenges	-4118
▁References	-4119
▁Integration	-4120
▁sensitivity	-4121
▁Acceleration	-4122
▁Relationship	-4123
▁Visualization	-4124
▁documentation	-4125
▁Authentication	-4126
)+	-4127
69	-4128
={	-4129
];	-4130
pe	-4131
⟩=	-4132
)=\	-4133
.3%	-4134
=0;	-4135
=11	-4136
ERT	-4137
INE	-4138
ROD	-4139
_{\	-4140
aut	-4141
inf	-4142
jsx	-4143
man	-4144
off	-4145
ops	-4146
wap	-4147
yle	-4148
▁-1	-4149
▁38	-4150
▁II	-4151
▁Py	-4152
▁RM	-4153
▁Su	-4154
0.11	-4155
COMM	-4156
alse	-4157
amer	-4158
atel	-4159
duce	-4160
elih	-4161
even	-4162
fort	-4163
ited	-4164
rank	-4165
▁(1)	-4166
▁1.2	-4167
▁11:	-4168
▁Bas	-4169
▁Ben	-4170
▁Com	-4171
▁Cre	-4172
▁Dot	-4173
▁Equ	-4174
▁Imm	-4175
▁NOT	-4176
▁Nor	-4177
▁Tut	-4178
▁[12	-4179
▁dig	-4180
▁mac	-4181
▁rev	-4182
▁rob	-4183
▁see	-4184
▁sud	-4185
YOLOv	-4186
atial	-4187
effic	-4188
iving	-4189
plies	-4190
uning	-4191
▁Both	-4192
▁East	-4193
▁Long	-4194
▁Russ	-4195
▁Some	-4196
▁UNIT	-4197
▁enti	-4198
▁even	-4199
▁four	-4200
▁less	-4201
▁made	-4202
▁perm	-4203
▁play	-4204
▁seed	-4205
▁task	-4206
▁trip	-4207
▁ways	-4208
abling	-4209
ademic	-4210
agneto	-4211
atives	-4212
attery	-4213
gation	-4214
inical	-4215
itical	-4216
option	-4217
ourses	-4218
target	-4219
▁Block	-4220
▁cover	-4221
▁force	-4222
▁young	-4223
Columns	-4224
elihood	-4225
ository	-4226
process	-4227
rontend	-4228
section	-4229
▁Append	-4230
▁Markov	-4231
▁Reduce	-4232
▁Second	-4233
▁import	-4234
▁metode	-4235
▁tested	-4236
▁update	-4237
izations	-4238
▁Dynamic	-4239
▁General	-4240
▁Joining	-4241
▁Virtual	-4242
▁akurasi	-4243
▁allowed	-4244
▁categor	-4245
▁content	-4246
▁created	-4247
▁disease	-4248
▁ethical	-4249
▁identif	-4250
▁objects	-4251
▁perfect	-4252
▁regular	-4253
▁schedul	-4254
▁seconds	-4255
▁section	-4256
▁vehicle	-4257
connected	-4258
quisition	-4259
ractional	-4260
▁Complete	-4261
▁Constant	-4262
▁Hardware	-4263
▁Receiver	-4264
▁Sequence	-4265
▁Settings	-4266
▁addition	-4267
▁changing	-4268
▁geometry	-4269
▁marginal	-4270
▁modeling	-4271
▁original	-4272
servations	-4273
▁Education	-4274
▁framework	-4275
▁partition	-4276
▁synthetic	-4277
▁arsitektur	-4278
▁ciphertext	-4279
▁collection	-4280
▁encryption	-4281
▁particular	-4282
▁Mathematics	-4283
▁Traditional	-4284
▁192.168.30.2	-4285
▁significantly	-4286
(*	-4287
)\	-4288
)}	-4289
27	-4290
43	-4291
86	-4292
=2	-4293
PO	-4294
TI	-4295
Un	-4296
_0	-4297
ls	-4298
ng	-4299
oo	-4300
rs	-4301
");	-4302
-12	-4303
021	-4304
ANT	-4305
IGH	-4306
csv	-4307
dis	-4308
ior	-4309
ium	-4310
nea	-4311
ocs	-4312
oot	-4313
psi	-4314
tle	-4315
ttp	-4316
▁({	-4317
▁3)	-4318
▁42	-4319
▁70	-4320
▁8,	-4321
▁=>	-4322
▁AB	-4323
▁Is	-4324
▁ML	-4325
LONG	-4326
ably	-4327
agai	-4328
anel	-4329
arta	-4330
dict	-4331
ense	-4332
esar	-4333
here	-4334
ifik	-4335
ingg	-4336
isco	-4337
keep	-4338
olar	-4339
osen	-4340
▁(20	-4341
▁21,	-4342
▁3.3	-4343
▁Aim	-4344
▁And	-4345
▁Bre	-4346
▁Dem	-4347
▁Div	-4348
▁Enc	-4349
▁PIC	-4350
▁Sch	-4351
▁Tor	-4352
▁Upd	-4353
▁VAR	-4354
▁bad	-4355
▁doi	-4356
▁loT	-4357
▁que	-4358
▁tid	-4359
ALARY	-4360
Torch	-4361
astic	-4362
chool	-4363
erial	-4364
igger	-4365
irect	-4366
ither	-4367
river	-4368
start	-4369
state	-4370
ticip	-4371
ummar	-4372
ustry	-4373
water	-4374
▁1000	-4375
▁Qual	-4376
▁aims	-4377
▁cart	-4378
▁cred	-4379
▁grid	-4380
▁join	-4381
▁mass	-4382
ediate	-4383
etooth	-4384
istory	-4385
lision	-4386
▁ALOHA	-4387
▁COvID	-4388
▁Cover	-4389
▁Image	-4390
▁Inser	-4391
▁Singh	-4392
▁Study	-4393
▁Which	-4394
▁adjac	-4395
▁angle	-4396
▁bikes	-4397
▁clock	-4398
▁cores	-4399
▁light	-4400
▁liter	-4401
▁quick	-4402
▁scale	-4403
▁sinar	-4404
▁split	-4405
▁taken	-4406
▁trees	-4407
essment	-4408
riendly	-4409
ullying	-4410
▁Calcul	-4411
▁Kernel	-4412
▁Linear	-4413
▁Manual	-4414
▁SQLite	-4415
▁Torque	-4416
▁adalah	-4417
▁altern	-4418
▁criter	-4419
▁highly	-4420
▁images	-4421
▁levels	-4422
▁mobile	-4423
▁policy	-4424
▁python	-4425
▁tables	-4426
▁videos	-4427
▁weight	-4428
bability	-4429
requency	-4430
straints	-4431
urations	-4432
▁(2020).	-4433
▁Between	-4434
▁Support	-4435
▁against	-4436
▁believe	-4437
▁channel	-4438
▁follows	-4439
▁forward	-4440
▁outputs	-4441
▁queries	-4442
▁records	-4443
▁segment	-4444
▁weights	-4445
▁Approxim	-4446
▁Generate	-4447
▁Multiple	-4448
▁Outcomes	-4449
▁Triangle	-4450
▁creating	-4451
▁critical	-4452
▁datasets	-4453
▁economic	-4454
▁enabling	-4455
▁flexible	-4456
▁identity	-4457
▁invoices	-4458
▁reducing	-4459
▁workload	-4460
▁Dashboard	-4461
▁Solutions	-4462
▁bandwidth	-4463
▁conducted	-4464
▁configure	-4465
▁increases	-4466
▁locations	-4467
▁parameter	-4468
▁plaintext	-4469
▁standards	-4470
ryptography	-4471
▁Complexity	-4472
▁Components	-4473
▁Horizontal	-4474
▁Properties	-4475
▁additional	-4476
▁artificial	-4477
▁augmentasi	-4478
▁importance	-4479
▁production	-4480
sychological	-4481
▁Development	-4482
▁Propagation	-4483
▁effectively	-4484
▁efficiently	-4485
▁interactive	-4486
▁permutation	-4487
▁reliability	-4488
▁expectations	-4489
▁automatically	-4490
▁environmental	-4491
▁Representation	-4492
##	-4493
('	-4494
)*	-4495
)-	-4496
){	-4497
*,	-4498
+1	-4499
2−	-4500
47	-4501
7/	-4502
74	-4503
AI	-4504
AP	-4505
By	-4506
FT	-4507
SL	-4508
UE	-4509
bi	-4510
eg	-4511
ma	-4512
na	-4513
wn	-4514
(1)	-4515
(2^	-4516
/32	-4517
0),	-4518
ECT	-4519
FER	-4520
Lab	-4521
MLT	-4522
cpu	-4523
ero	-4524
fil	-4525
hap	-4526
lan	-4527
ped	-4528
rop	-4529
▁(5	-4530
▁1(	-4531
▁34	-4532
▁39	-4533
▁4)	-4534
▁41	-4535
▁5%	-4536
▁5-	-4537
▁=\	-4538
▁Av	-4539
▁Ax	-4540
▁B⃗	-4541
▁CR	-4542
▁Io	-4543
▁Ld	-4544
▁Ul	-4545
▁\)	-4546
ahan	-4547
aker	-4548
anan	-4549
ched	-4550
eful	-4551
eles	-4552
ered	-4553
ords	-4554
pare	-4555
root	-4556
term	-4557
thog	-4558
uber	-4559
ustr	-4560
▁1.4	-4561
▁2.2	-4562
▁Age	-4563
▁Cle	-4564
▁Moh	-4565
▁Pri	-4566
▁Spe	-4567
▁Sur	-4568
▁clk	-4569
▁der	-4570
▁dik	-4571
▁mer	-4572
▁nam	-4573
▁sss	-4574
CTION	-4575
ENCES	-4576
Hello	-4577
IMARY	-4578
POINT	-4579
aling	-4580
amera	-4581
appro	-4582
arism	-4583
atrix	-4584
graph	-4585
ishra	-4586
metic	-4587
oring	-4588
ouble	-4589
ptoms	-4590
space	-4591
timul	-4592
vival	-4593
write	-4594
▁File	-4595
▁Head	-4596
▁Load	-4597
▁Lost	-4598
▁Note	-4599
▁Phys	-4600
▁Post	-4601
▁Tiny	-4602
▁akan	-4603
▁chat	-4604
▁earn	-4605
▁give	-4606
▁jobs	-4607
▁larg	-4608
▁left	-4609
▁mend	-4610
▁mind	-4611
▁mode	-4612
▁pred	-4613
▁prom	-4614
▁scre	-4615
▁side	-4616
aneous	-4617
ermine	-4618
idence	-4619
isting	-4620
linear	-4621
module	-4622
osting	-4623
overed	-4624
▁1,000	-4625
▁20235	-4626
▁Array	-4627
▁Human	-4628
▁REFER	-4629
▁Redis	-4630
▁Smart	-4631
▁clear	-4632
▁early	-4633
▁label	-4634
▁makes	-4635
▁offer	-4636
▁organ	-4637
▁parts	-4638
▁prior	-4639
▁purch	-4640
▁rapid	-4641
▁right	-4642
▁shift	-4643
alytics	-4644
apatkan	-4645
control	-4646
inguish	-4647
oration	-4648
ressive	-4649
▁Change	-4650
▁Choose	-4651
▁Unreal	-4652
▁amount	-4653
▁attack	-4654
▁cancer	-4655
▁causes	-4656
▁counts	-4657
▁domain	-4658
▁figure	-4659
▁filter	-4660
▁layers	-4661
▁longer	-4662
▁proper	-4663
▁proses	-4664
▁remain	-4665
agiarism	-4666
▁Limited	-4667
▁PRIMARY	-4668
▁Perform	-4669
▁Primary	-4670
▁Privacy	-4671
▁Quality	-4672
▁Special	-4673
▁affects	-4674
▁coordin	-4675
▁courses	-4676
▁element	-4677
▁impacts	-4678
▁modules	-4679
▁monitor	-4680
▁predict	-4681
▁shaping	-4682
▁smaller	-4683
Inductive	-4684
leftarrow	-4685
ributions	-4686
▁Consider	-4687
▁Download	-4688
▁Protocol	-4689
▁TensorRT	-4690
▁achieved	-4691
▁counters	-4692
▁embedded	-4693
▁ensuring	-4694
▁included	-4695
▁priority	-4696
persistent	-4697
▁Automatic	-4698
▁collected	-4699
▁diagnosis	-4700
▁extracted	-4701
▁optimizer	-4702
▁pneumonia	-4703
▁processed	-4704
information	-4705
▁Monitoring	-4706
▁REFERENCES	-4707
▁Submission	-4708
▁activities	-4709
▁connection	-4710
▁experiment	-4711
▁meaningful	-4712
▁variations	-4713
▁Temperature	-4714
▁communicate	-4715
▁engineering	-4716
▁individuals	-4717
▁lightweight	-4718
▁limitations	-4719
▁Transactions	-4720
▁probabilities	-4721
,,	-4722
19	-4723
52	-4724
<<	-4725
<=	-4726
A⃗	-4727
CI	-4728
FE	-4729
OL	-4730
gl	-4731
uz	-4732
),(	-4733
-32	-4734
12,	-4735
4.1	-4736
=1,	-4737
IGN	-4738
Ind	-4739
ROC	-4740
ept	-4741
exp	-4742
hor	-4743
xiv	-4744
▁(~	-4745
▁1]	-4746
▁49	-4747
▁68	-4748
▁7-	-4749
▁92	-4750
▁GO	-4751
▁Hz	-4752
▁[3	-4753
▁ka	-4754
▁oc	-4755
▁√(	-4756
-19,	-4757
0,1}	-4758
7.85	-4759
=128	-4760
CHAR	-4761
HERE	-4762
ICAL	-4763
IMIT	-4764
Node	-4765
Resp	-4766
Type	-4767
_{23	-4768
adav	-4769
atik	-4770
core	-4771
inue	-4772
ises	-4773
onus	-4774
stru	-4775
▁14.	-4776
▁15.	-4777
▁2.3	-4778
▁20%	-4779
▁22,	-4780
▁25%	-4781
▁3.4	-4782
▁Bay	-4783
▁CNN	-4784
▁Eff	-4785
▁Job	-4786
▁LOD	-4787
▁PTT	-4788
▁STE	-4789
▁TTL	-4790
▁cut	-4791
▁dif	-4792
▁ing	-4793
▁now	-4794
▁sed	-4795
▁squ	-4796
0.0.0	-4797
0.000	-4798
IMENS	-4799
ambar	-4800
apoor	-4801
estig	-4802
grade	-4803
imate	-4804
ingga	-4805
local	-4806
macOs	-4807
omial	-4808
orage	-4809
tfrac	-4810
trans	-4811
ulate	-4812
utral	-4813
valid	-4814
▁10.4	-4815
▁Chat	-4816
▁Edge	-4817
▁Mess	-4818
▁Most	-4819
▁NAME	-4820
▁Scre	-4821
▁Tool	-4822
▁able	-4823
▁buff	-4824
▁exch	-4825
▁flip	-4826
▁idle	-4827
▁keep	-4828
▁mein	-4829
▁meny	-4830
▁pand	-4831
▁pers	-4832
▁satu	-4833
▁tree	-4834
714285	-4835
92.168	-4836
MPLETE	-4837
andana	-4838
ecause	-4839
ensors	-4840
gument	-4841
iterbi	-4842
oustic	-4843
output	-4844
system	-4845
zation	-4846
▁Abstr	-4847
▁Hence	-4848
▁Shift	-4849
▁Speed	-4850
▁WHERE	-4851
▁carri	-4852
▁clean	-4853
▁click	-4854
▁costs	-4855
▁divid	-4856
▁guide	-4857
▁infer	-4858
▁maneu	-4859
▁masks	-4860
▁numer	-4861
▁setup	-4862
▁think	-4863
▁virus	-4864
▁write	-4865
▁yield	-4866
balance	-4867
erequis	-4868
hecksum	-4869
seconds	-4870
trained	-4871
▁2020).	-4872
▁COURSE	-4873
▁DIMENS	-4874
▁Domain	-4875
▁School	-4876
▁Statis	-4877
▁Tracer	-4878
▁affine	-4879
▁answer	-4880
▁manual	-4881
▁motion	-4882
▁prefer	-4883
▁solved	-4884
▁spikes	-4885
▁timest	-4886
atorname	-4887
ithmetic	-4888
plicable	-4889
▁Applied	-4890
▁Details	-4891
▁However	-4892
▁Journal	-4893
▁Pinging	-4894
▁PyTorch	-4895
▁Reports	-4896
▁Russell	-4897
▁VARCHAR	-4898
▁analyze	-4899
▁connect	-4900
▁explain	-4901
▁payment	-4902
▁related	-4903
▁sebagai	-4904
▁waiting	-4905
interface	-4906
▁Accounts	-4907
▁Enhanced	-4908
▁Humidity	-4909
▁Terminal	-4910
▁assigned	-4911
▁clinical	-4912
▁evaluate	-4913
▁investig	-4914
▁material	-4915
▁patients	-4916
▁practice	-4917
▁relation	-4918
▁supports	-4919
▁symptoms	-4920
▁Benchmark	-4921
▁DIMENSION	-4922
▁Developed	-4923
▁Integrate	-4924
▁addresses	-4925
▁correctly	-4926
▁customers	-4927
▁decisions	-4928
▁execution	-4929
▁precision	-4930
▁utilities	-4931
▁MixColumns	-4932
▁Validation	-4933
▁assignment	-4934
▁attributes	-4935
▁dependency	-4936
▁historical	-4937
▁parameters	-4938
ommendations	-4939
▁Approximate	-4940
▁INSTRUCTORS	-4941
▁Respiration	-4942
▁International	-4943
▁Normalization	-4944
▁representation	-4945
")	-4946
-)	-4947
1;	-4948
31	-4949
59	-4950
79	-4951
?)	-4952
Ap	-4953
GD	-4954
IA	-4955
LS	-4956
Pl	-4957
TS	-4958
To	-4959
UM	-4960
XX	-4961
^3	-4962
xx	-4963
}}	-4964
▁^	-4965
▁_	-4966
▁̂	-4967
020	-4968
4.2	-4969
5.1	-4970
500	-4971
MUL	-4972
Yes	-4973
adh	-4974
cpp	-4975
itv	-4976
las	-4977
mul	-4978
pol	-4979
ray	-4980
seq	-4981
ucl	-4982
uga	-4983
uzz	-4984
vig	-4985
−3]	-4986
▁55	-4987
▁58	-4988
▁73	-4989
▁8-	-4990
▁==	-4991
▁Cr	-4992
▁PH	-4993
▁SU	-4994
▁TE	-4995
▁ho	-4996
▁mm	-4997
▁ra	-4998
▁um	-4999
1:0]	-5000
Week	-5001
_{13	-5002
abel	-5003
ager	-5004
arlo	-5005
atom	-5006
avel	-5007
bits	-5008
erce	-5009
erti	-5010
host	-5011
ighb	-5012
inci	-5013
init	-5014
irth	-5015
lobe	-5016
miss	-5017
page	-5018
riev	-5019
rive	-5020
road	-5021
sets	-5022
seud	-5023
side	-5024
sole	-5025
star	-5026
tely	-5027
till	-5028
tlen	-5029
user	-5030
▁0.3	-5031
▁0.4	-5032
▁128	-5033
▁256	-5034
▁997	-5035
▁ACK	-5036
▁ADC	-5037
▁ESP	-5038
▁Fin	-5039
▁INS	-5040
▁IPC	-5041
▁IoT	-5042
▁Oms	-5043
▁Osp	-5044
▁PHA	-5045
▁Rob	-5046
▁Tum	-5047
▁exc	-5048
▁hap	-5049
▁kon	-5050
▁law	-5051
▁maj	-5052
▁src	-5053
▁wid	-5054
.0/24	-5055
Ankit	-5056
MPORT	-5057
andid	-5058
apers	-5059
crete	-5060
ellip	-5061
hasil	-5062
iable	-5063
icine	-5064
iiitv	-5065
imits	-5066
ively	-5067
known	-5068
netes	-5069
otted	-5070
range	-5071
rical	-5072
train	-5073
world	-5074
▁Cost	-5075
▁Flow	-5076
▁Main	-5077
▁Miss	-5078
▁Poin	-5079
▁Same	-5080
▁Sent	-5081
▁Then	-5082
▁Wind	-5083
▁addr	-5084
▁answ	-5085
▁busy	-5086
▁cell	-5087
▁edit	-5088
▁emer	-5089
▁http	-5090
▁juga	-5091
▁loop	-5092
▁memb	-5093
▁prot	-5094
▁rows	-5095
▁sets	-5096
angkan	-5097
arning	-5098
cluded	-5099
icular	-5100
making	-5101
▁Carlo	-5102
▁Cisco	-5103
▁Deriv	-5104
▁Goals	-5105
▁Influ	-5106
▁Monte	-5107
▁Other	-5108
▁Right	-5109
▁Stack	-5110
▁There	-5111
▁Three	-5112
▁Train	-5113
▁apnea	-5114
▁apply	-5115
▁basic	-5116
▁becom	-5117
▁being	-5118
▁cause	-5119
▁innov	-5120
▁karta	-5121
▁lives	-5122
▁occur	-5123
▁paths	-5124
▁repro	-5125
▁sales	-5126
▁schem	-5127
▁tidak	-5128
Science	-5129
adients	-5130
airness	-5131
fitting	-5132
inforce	-5133
istency	-5134
itation	-5135
lective	-5136
yperpar	-5137
▁Comput	-5138
▁Correl	-5139
▁Global	-5140
▁Norvig	-5141
▁Online	-5142
▁Verify	-5143
▁allows	-5144
▁appear	-5145
▁either	-5146
▁entire	-5147
▁faster	-5148
▁inside	-5149
▁secara	-5150
▁shared	-5151
▁summar	-5152
MPORTANT	-5153
Optional	-5154
elligent	-5155
paration	-5156
▁Connect	-5157
▁Display	-5158
▁Improve	-5159
▁Minimal	-5160
▁Univers	-5161
▁Viterbi	-5162
▁achieve	-5163
▁arrival	-5164
▁defined	-5165
▁failure	-5166
▁instant	-5167
▁limited	-5168
▁packets	-5169
▁quantum	-5170
▁regbank	-5171
▁strateg	-5172
▁student	-5173
▁subnets	-5174
▁uniform	-5175
placement	-5176
ubernetes	-5177
ultaneous	-5178
▁10.47.85	-5179
▁Abstract	-5180
▁Building	-5181
▁Determin	-5182
▁Modeling	-5183
▁Password	-5184
▁Pipeline	-5185
▁Screensh	-5186
▁Semantic	-5187
▁Supports	-5188
▁academic	-5189
▁balanced	-5190
▁baseline	-5191
▁dynamics	-5192
▁examples	-5193
▁indicate	-5194
▁maintain	-5195
▁matrices	-5196
▁pairwise	-5197
▁progress	-5198
▁proposed	-5199
▁protocol	-5200
▁requires	-5201
▁semantic	-5202
▁services	-5203
▁variable	-5204
▁variably	-5205
controller	-5206
pendicular	-5207
▁Bluetooth	-5208
▁Collision	-5209
▁TinyLinux	-5210
▁Transform	-5211
▁community	-5212
▁effective	-5213
▁objective	-5214
▁simulated	-5215
▁Automation	-5216
▁Difference	-5217
▁Revolution	-5218
▁associated	-5219
▁difference	-5220
▁frequently	-5221
▁identified	-5222
▁increasing	-5223
▁influences	-5224
▁integrated	-5225
▁interfaces	-5226
▁structured	-5227
▁transition	-5228
operatorname	-5229
ustainability	-5230
▁192.168.10.2	-5231
▁Cryptography	-5232
▁surveillance	-5233
▁Technological	-5234
▁accessibility	-5235
▁normalization	-5236
▁psychological	-5237
▁Multiplication	-5238
▁virtualization	-5239
1+	-5240
6:	-5241
77	-5242
7:	-5243
CR	-5244
CS	-5245
Is	-5246
MO	-5247
No	-5248
RP	-5249
VI	-5250
pm	-5251
rP	-5252
wh	-5253
̸=	-5254
)):	-5255
.2:	-5256
081	-5257
1))	-5258
ASA	-5259
Ans	-5260
DER	-5261
EEK	-5262
Rep	-5263
Res	-5264
_3)	-5265
ami	-5266
asw	-5267
eam	-5268
edu	-5269
edy	-5270
hel	-5271
iFi	-5272
ilt	-5273
itu	-5274
ken	-5275
lib	-5276
lms	-5277
log	-5278
ogn	-5279
oks	-5280
ota	-5281
ren	-5282
ret	-5283
std	-5284
stm	-5285
ury	-5286
yne	-5287
▁",	-5288
▁(9	-5289
▁2(	-5290
▁48	-5291
▁5,	-5292
▁52	-5293
▁54	-5294
▁56	-5295
▁75	-5296
▁@(	-5297
▁CA	-5298
▁EN	-5299
▁Fl	-5300
▁KG	-5301
▁NS	-5302
▁ce	-5303
0.02	-5304
0810	-5305
1,1,	-5306
8.8.	-5307
9999	-5308
Comm	-5309
Trak	-5310
_2)=	-5311
acil	-5312
aged	-5313
ahap	-5314
atio	-5315
beta	-5316
bike	-5317
cern	-5318
empt	-5319
file	-5320
ique	-5321
king	-5322
only	-5323
pler	-5324
prop	-5325
uctu	-5326
venv	-5327
vern	-5328
▁###	-5329
▁(2)	-5330
▁1.0	-5331
▁10%	-5332
▁12:	-5333
▁13:	-5334
▁14:	-5335
▁ARQ	-5336
▁Cap	-5337
▁Get	-5338
▁HAV	-5339
▁Har	-5340
▁Hel	-5341
▁ITL	-5342
▁LAN	-5343
▁Med	-5344
▁Off	-5345
▁PCs	-5346
▁Pas	-5347
▁RPC	-5348
▁Sar	-5349
▁ang	-5350
▁est	-5351
▁far	-5352
▁flo	-5353
▁iss	-5354
▁lit	-5355
▁mid	-5356
▁nat	-5357
▁sol	-5358
▁tar	-5359
▁tur	-5360
(2^8)	-5361
ACHER	-5362
Based	-5363
Bytes	-5364
arxiv	-5365
chain	-5366
eness	-5367
lines	-5368
qquad	-5369
rupts	-5370
scale	-5371
ukkan	-5372
▁0.02	-5373
▁5000	-5374
▁Eucl	-5375
▁Loop	-5376
▁NASA	-5377
▁Prom	-5378
▁Prot	-5379
▁Stop	-5380
▁That	-5381
▁Yoga	-5382
▁bill	-5383
▁char	-5384
▁clus	-5385
▁dyne	-5386
▁fine	-5387
▁note	-5388
▁obst	-5389
▁opin	-5390
▁rout	-5391
▁sudo	-5392
▁swap	-5393
081021	-5394
Queens	-5395
ablish	-5396
accept	-5397
approx	-5398
arante	-5399
cedure	-5400
ercise	-5401
ibrary	-5402
opping	-5403
plicit	-5404
points	-5405
report	-5406
riends	-5407
tivity	-5408
tocols	-5409
▁Basic	-5410
▁Bayes	-5411
▁INTER	-5412
▁LIMIT	-5413
▁NOTES	-5414
▁PHASE	-5415
▁Quest	-5416
▁Sched	-5417
▁Steps	-5418
▁basis	-5419
▁chest	-5420
▁depth	-5421
▁doing	-5422
▁fitur	-5423
▁labor	-5424
▁means	-5425
▁micro	-5426
▁milli	-5427
▁moves	-5428
▁never	-5429
▁norad	-5430
▁queue	-5431
▁reply	-5432
▁salah	-5433
▁since	-5434
▁third	-5435
▁works	-5436
Student	-5437
achines	-5438
ifikasi	-5439
jection	-5440
nealing	-5441
odities	-5442
posedge	-5443
ynomial	-5444
▁Binary	-5445
▁Branch	-5446
▁Cannot	-5447
▁Custom	-5448
▁CutMix	-5449
▁Depend	-5450
▁Enable	-5451
▁Factor	-5452
▁HAVING	-5453
▁INSERT	-5454
▁Medium	-5455
▁Mishra	-5456
▁Recall	-5457
▁Sample	-5458
▁Select	-5459
▁Stream	-5460
▁Strong	-5461
▁Vertex	-5462
▁[15:0]	-5463
▁acting	-5464
▁adding	-5465
▁adjust	-5466
▁bandit	-5467
▁blocks	-5468
▁branch	-5469
▁candid	-5470
▁choice	-5471
▁chosen	-5472
▁diffic	-5473
▁pandem	-5474
▁preser	-5475
▁shapes	-5476
▁skills	-5477
▁status	-5478
▁target	-5479
▁turned	-5480
▁yields	-5481
atalogue	-5482
bullying	-5483
elesTrak	-5484
ographic	-5485
problems	-5486
thogonal	-5487
traction	-5488
ximately	-5489
▁Battery	-5490
▁Changes	-5491
▁Concept	-5492
▁Economy	-5493
▁Enabled	-5494
▁Explore	-5495
▁Extract	-5496
▁Magneto	-5497
▁Monitor	-5498
▁Optimal	-5499
▁Prepare	-5500
▁Request	-5501
▁Storage	-5502
▁Studies	-5503
▁TEACHER	-5504
▁account	-5505
▁algebra	-5506
▁answers	-5507
▁classes	-5508
▁clearly	-5509
▁console	-5510
▁convert	-5511
▁describ	-5512
▁display	-5513
▁edition	-5514
▁leading	-5515
▁medical	-5516
▁possess	-5517
▁produce	-5518
▁quickly	-5519
▁surface	-5520
junctions	-5521
▁COMPLETE	-5522
▁Database	-5523
▁Pressure	-5524
▁Revision	-5525
▁Vertical	-5526
▁absolute	-5527
▁allowing	-5528
▁captured	-5529
▁classify	-5530
▁computes	-5531
▁detected	-5532
▁explored	-5533
▁followed	-5534
▁interest	-5535
▁periodic	-5536
▁presents	-5537
▁strength	-5538
▁workflow	-5539
▁Executive	-5540
▁IMPORTANT	-5541
▁Influence	-5542
▁Operating	-5543
▁Reasoning	-5544
▁Sequences	-5545
▁attention	-5546
▁confusion	-5547
▁dilakukan	-5548
▁predicted	-5549
▁rendering	-5550
▁resistive	-5551
▁sequences	-5552
▁subnetted	-5553
inforcement	-5554
ugmentation	-5555
▁Efficiency	-5556
▁Fractional	-5557
▁Interfaces	-5558
▁conclusion	-5559
▁industrial	-5560
▁respondent	-5561
▁strategies	-5562
▁Dimensional	-5563
▁Limitations	-5564
▁convergence	-5565
▁experiences	-5566
▁intelligent	-5567
▁mendapatkan	-5568
▁overfitting	-5569
▁transitions	-5570
▁utilization	-5571
▁192.168.20.2	-5572
▁Additionally	-5573
▁Observations	-5574
▁Optimization	-5575
▁particularly	-5576
▁simultaneous	-5577
▁Documentation	-5578
▁Parallelogram	-5579
▁Characteristics	-5580
▁characteristics	-5581
-4	-5582
/5	-5583
1_	-5584
2-	-5585
;.	-5586
Ig	-5587
Im	-5588
JF	-5589
Pv	-5590
WT	-5591
]=	-5592
ci	-5593
di	-5594
dy	-5595
gg	-5596
ka	-5597
li	-5598
md	-5599
rt	-5600
uu	-5601
vx	-5602
wr	-5603
}.	-5604
▁·	-5605
));	-5606
)=√	-5607
+1)	-5608
016	-5609
017	-5610
12.	-5611
ACK	-5612
App	-5613
ICS	-5614
Key	-5615
PTT	-5616
Ver	-5617
ani	-5618
apa	-5619
ato	-5620
dat	-5621
ene	-5622
env	-5623
ety	-5624
had	-5625
iki	-5626
isa	-5627
ora	-5628
rad	-5629
run	-5630
sha	-5631
sto	-5632
uit	-5633
unj	-5634
},\	-5635
▁43	-5636
▁57	-5637
▁59	-5638
▁61	-5639
▁65	-5640
▁77	-5641
▁88	-5642
▁At	-5643
▁Ay	-5644
▁Bi	-5645
▁FE	-5646
▁LE	-5647
▁UG	-5648
▁Zh	-5649
▁[4	-5650
▁bl	-5651
▁ko	-5652
▁ns	-5653
▁pi	-5654
▁sa	-5655
=113	-5656
=126	-5657
Ansh	-5658
Wait	-5659
asus	-5660
ativ	-5661
brid	-5662
call	-5663
enis	-5664
exit	-5665
from	-5666
inks	-5667
ipal	-5668
isms	-5669
onic	-5670
outh	-5671
pack	-5672
path	-5673
seed	-5674
sequ	-5675
trac	-5676
vant	-5677
▁(12	-5678
▁(3,	-5679
▁(30	-5680
▁(6,	-5681
▁0.1	-5682
▁1.3	-5683
▁105	-5684
▁120	-5685
▁15:	-5686
▁255	-5687
▁3.6	-5688
▁5.1	-5689
▁CSV	-5690
▁Ens	-5691
▁Raj	-5692
▁SGP	-5693
▁Tim	-5694
▁ata	-5695
▁aur	-5696
▁bag	-5697
▁cir	-5698
▁did	-5699
▁dim	-5700
▁own	-5701
▁pop	-5702
▁rod	-5703
▁vis	-5704
0.002	-5705
Trans	-5706
arith	-5707
aswat	-5708
atell	-5709
ester	-5710
hadap	-5711
idean	-5712
ifies	-5713
ilies	-5714
itten	-5715
lustr	-5716
ocode	-5717
oking	-5718
phone	-5719
pload	-5720
reads	-5721
thers	-5722
ulent	-5723
usive	-5724
▁0.05	-5725
▁ASOD	-5726
▁Base	-5727
▁Care	-5728
▁Cent	-5729
▁Conf	-5730
▁Ever	-5731
▁FORE	-5732
▁ICPC	-5733
▁INTO	-5734
▁Path	-5735
▁STEP	-5736
▁Tock	-5737
▁Zero	-5738
▁cruc	-5739
▁down	-5740
▁free	-5741
▁iden	-5742
▁inte	-5743
▁klas	-5744
▁know	-5745
▁much	-5746
▁nano	-5747
▁pict	-5748
▁rise	-5749
▁tail	-5750
▁trac	-5751
▁wear	-5752
SALARY	-5753
aching	-5754
adical	-5755
agonal	-5756
ancing	-5757
athing	-5758
corpor	-5759
ertain	-5760
gments	-5761
mapsto	-5762
priate	-5763
readth	-5764
▁00:00	-5765
▁Clean	-5766
▁Found	-5767
▁Phase	-5768
▁Sales	-5769
▁Scope	-5770
▁Topic	-5771
▁agree	-5772
▁batch	-5773
▁calls	-5774
▁coils	-5775
▁color	-5776
▁curve	-5777
▁ellip	-5778
▁false	-5779
▁fetch	-5780
▁kasus	-5781
▁maint	-5782
▁modul	-5783
▁names	-5784
▁patel	-5785
▁reven	-5786
▁rules	-5787
▁saved	-5788
▁still	-5789
^{(1)})	-5790
atively	-5791
ecessor	-5792
idering	-5793
ivalent	-5794
portion	-5795
▁50,000	-5796
▁Amount	-5797
▁Client	-5798
▁Docker	-5799
▁Family	-5800
▁Geomet	-5801
▁Socket	-5802
▁Struct	-5803
▁admiss	-5804
▁analog	-5805
▁assign	-5806
▁disord	-5807
▁double	-5808
▁expand	-5809
▁finite	-5810
▁handle	-5811
▁immedi	-5812
▁inform	-5813
▁labels	-5814
▁larger	-5815
▁modern	-5816
▁reshap	-5817
▁robust	-5818
▁scalar	-5819
▁struct	-5820
▁useful	-5821
:2023511	-5822
Response	-5823
dictions	-5824
fortable	-5825
hasilkan	-5826
lustrasi	-5827
ochastic	-5828
ommended	-5829
oretical	-5830
▁0.0.0.0	-5831
▁Message	-5832
▁Success	-5833
▁becomes	-5834
▁bottlen	-5835
▁contain	-5836
▁crucial	-5837
▁depends	-5838
▁discuss	-5839
▁dynamic	-5840
▁exactly	-5841
▁invoice	-5842
▁mapping	-5843
▁missing	-5844
▁mission	-5845
▁passing	-5846
▁session	-5847
▁station	-5848
▁summary	-5849
02351130)	-5850
efficient	-5851
seudocode	-5852
▁Advanced	-5853
▁Concerns	-5854
▁Decision	-5855
▁Language	-5856
▁Priority	-5857
▁Saraswat	-5858
▁Wireless	-5859
▁accounts	-5860
▁acoustic	-5861
▁combined	-5862
▁computed	-5863
▁continue	-5864
▁download	-5865
▁expected	-5866
▁explores	-5867
▁guarante	-5868
▁impacted	-5869
▁password	-5870
▁produces	-5871
▁sampling	-5872
▁selected	-5873
▁switches	-5874
INSTRUCTOR	-5875
supervised	-5876
▁Directrix	-5877
▁Variables	-5878
▁affecting	-5879
▁analytics	-5880
▁automated	-5881
▁behaviour	-5882
▁concluded	-5883
▁depressed	-5884
▁digunakan	-5885
▁identical	-5886
▁indicates	-5887
▁selection	-5888
▁statement	-5889
▁usability	-5890
▁Controller	-5891
▁Derivation	-5892
▁Industrial	-5893
▁Perception	-5894
▁Proportion	-5895
▁Regression	-5896
▁Understand	-5897
▁accessible	-5898
▁applicable	-5899
▁conversion	-5900
▁department	-5901
▁indicating	-5902
▁mechanisms	-5903
▁modulation	-5904
▁plagiarism	-5905
▁plaintexts	-5906
▁simulation	-5907
▁throughput	-5908
▁Destination	-5909
▁Experiments	-5910
▁Interactive	-5911
▁Scalability	-5912
▁Screenshots	-5913
▁calculation	-5914
▁constraints	-5915
▁description	-5916
▁distinguish	-5917
▁experiments	-5918
▁immediately	-5919
▁maintaining	-5920
▁represented	-5921
▁subproblems	-5922
yperparameter	-5923
▁demonstrates	-5924
▁multivariate	-5925
▁Comprehensive	-5926
▁configurations	-5927
▁infrastructure	-5928
▁simultaneously	-5929
▁Recommendations	-5930
%.	-5931
';	-5932
,\	-5933
0;	-5934
2_	-5935
4(	-5936
5:	-5937
65	-5938
76	-5939
78	-5940
84	-5941
BB	-5942
DR	-5943
Id	-5944
LP	-5945
LU	-5946
Ms	-5947
PF	-5948
VR	-5949
aS	-5950
da	-5951
ea	-5952
uh	-5953
-10	-5954
.).	-5955
.60	-5956
019	-5957
2).	-5958
2+2	-5959
ACE	-5960
Aut	-5961
CPF	-5962
Cos	-5963
LdP	-5964
MAX	-5965
_2}	-5966
aby	-5967
aff	-5968
ars	-5969
ina	-5970
max	-5971
mnt	-5972
mos	-5973
nex	-5974
ole	-5975
ool	-5976
uan	-5977
ube	-5978
vol	-5979
zip	-5980
}).	-5981
})=	-5982
−1)	-5983
▁$0	-5984
▁('	-5985
▁()	-5986
▁(4	-5987
▁(=	-5988
▁01	-5989
▁44	-5990
▁6-	-5991
▁69	-5992
▁82	-5993
▁87	-5994
▁97	-5995
▁=0	-5996
▁AN	-5997
▁Be	-5998
▁Bl	-5999
▁CC	-6000
▁DF	-6001
▁Ky	-6002
▁LI	-6003
▁Le	-6004
▁MA	-6005
▁MD	-6006
▁ME	-6007
▁Ra	-6008
▁Up	-6009
▁[2	-6010
▁[5	-6011
▁br	-6012
▁dr	-6013
0.2,	-6014
0000	-6015
Comp	-6016
DIST	-6017
_1,\	-6018
_2))	-6019
arse	-6020
atih	-6021
cast	-6022
ceed	-6023
cost	-6024
dots	-6025
ging	-6026
grad	-6027
head	-6028
info	-6029
ingk	-6030
lege	-6031
lict	-6032
mail	-6033
math	-6034
orem	-6035
ouse	-6036
ples	-6037
reat	-6038
rect	-6039
reet	-6040
rict	-6041
ulas	-6042
ultr	-6043
uran	-6044
ured	-6045
urer	-6046
vice	-6047
▁(2,	-6048
▁0.6	-6049
▁110	-6050
▁13,	-6051
▁16.	-6052
▁16:	-6053
▁17.	-6054
▁18.	-6055
▁2.5	-6056
▁20:	-6057
▁365	-6058
▁5.2	-6059
▁600	-6060
▁Asp	-6061
▁CON	-6062
▁GPA	-6063
▁Hop	-6064
▁Hub	-6065
▁Kya	-6066
▁LAB	-6067
▁Liu	-6068
▁NeT	-6069
▁Neg	-6070
▁PRO	-6071
▁Pur	-6072
▁SHA	-6073
▁Sci	-6074
▁Sym	-6075
▁UDP	-6076
▁WSL	-6077
▁[3]	-6078
▁abs	-6079
▁arg	-6080
▁asp	-6081
▁din	-6082
▁exh	-6083
▁har	-6084
▁mar	-6085
▁pem	-6086
▁rot	-6087
▁tax	-6088
▁uuu	-6089
1,-1,	-6090
Clock	-6091
ached	-6092
acing	-6093
allow	-6094
anies	-6095
anyak	-6096
apkan	-6097
avors	-6098
duced	-6099
eated	-6100
ecial	-6101
equiv	-6102
erior	-6103
essed	-6104
field	-6105
opper	-6106
plain	-6107
ultic	-6108
uzzle	-6109
ybrid	-6110
▁(2^{	-6111
▁0.85	-6112
▁Ampl	-6113
▁Best	-6114
▁CSMA	-6115
▁Copy	-6116
▁Cult	-6117
▁Does	-6118
▁Done	-6119
▁Exam	-6120
▁HIGH	-6121
▁Lamp	-6122
▁NULL	-6123
▁Only	-6124
▁Publ	-6125
▁Role	-6126
▁Save	-6127
▁bicy	-6128
▁docs	-6129
▁face	-6130
▁gaps	-6131
▁grep	-6132
▁iter	-6133
▁kami	-6134
▁lung	-6135
▁maps	-6136
▁peer	-6137
▁rank	-6138
▁repl	-6139
▁slow	-6140
▁star	-6141
Cosmos	-6142
Figure	-6143
Shivam	-6144
_{23}(	-6145
acilit	-6146
anning	-6147
berapa	-6148
driven	-6149
irical	-6150
ishing	-6151
nexora	-6152
oneous	-6153
raight	-6154
ridium	-6155
window	-6156
▁Areas	-6157
▁Cache	-6158
▁Epoch	-6159
▁Fully	-6160
▁Hasil	-6161
▁Helps	-6162
▁Index	-6163
▁Level	-6164
▁Press	-6165
▁Proof	-6166
▁Round	-6167
▁Sheet	-6168
▁Small	-6169
▁Split	-6170
▁Tests	-6171
▁Tools	-6172
▁Whats	-6173
▁[120/	-6174
▁adapt	-6175
▁bonus	-6176
▁brief	-6177
▁capac	-6178
▁exhal	-6179
▁issue	-6180
▁links	-6181
▁lower	-6182
▁macOS	-6183
▁needs	-6184
▁ports	-6185
▁press	-6186
▁progn	-6187
▁roles	-6188
▁stand	-6189
▁teach	-6190
▁turns	-6191
/10.100	-6192
aration	-6193
aringan	-6194
current	-6195
ecially	-6196
incipal	-6197
irthday	-6198
keepers	-6199
mediate	-6200
timulus	-6201
umption	-6202
▁Gambar	-6203
▁Google	-6204
▁Produc	-6205
▁Prompt	-6206
▁Queens	-6207
▁ResNet	-6208
▁Serial	-6209
▁Shared	-6210
▁Solved	-6211
▁bagian	-6212
▁buffer	-6213
▁choose	-6214
▁divide	-6215
▁employ	-6216
▁enable	-6217
▁export	-6218
▁fluctu	-6219
▁grades	-6220
▁inputs	-6221
▁limits	-6222
▁manage	-6223
▁marked	-6224
▁neighb	-6225
▁others	-6226
▁packet	-6227
▁remove	-6228
▁script	-6229
▁sorted	-6230
▁tuning	-6231
distance	-6232
enuation	-6233
notation	-6234
▁Because	-6235
▁Breadth	-6236
▁Contact	-6237
▁Context	-6238
▁Ethical	-6239
▁FOREIGN	-6240
▁Finally	-6241
▁Invoice	-6242
▁Packets	-6243
▁Provide	-6244
▁Reduces	-6245
▁Schedul	-6246
▁Shallow	-6247
▁Slotted	-6248
▁Speaker	-6249
▁confirm	-6250
▁friends	-6251
▁instead	-6252
▁markets	-6253
▁natural	-6254
▁numeric	-6255
▁patient	-6256
▁rabbits	-6257
▁remains	-6258
▁routers	-6259
▁routing	-6260
▁running	-6261
▁service	-6262
▁sources	-6263
▁spatial	-6264
▁special	-6265
▁surveys	-6266
Professor	-6267
itigation	-6268
plicative	-6269
ufacturer	-6270
▁Detector	-6271
▁Division	-6272
▁Internet	-6273
▁Magnetic	-6274
▁Particip	-6275
▁Quantity	-6276
▁Stimulus	-6277
▁adjacent	-6278
▁advanced	-6279
▁argument	-6280
▁beberapa	-6281
▁building	-6282
▁distress	-6283
▁intended	-6284
▁jaringan	-6285
▁majority	-6286
▁maneuver	-6287
▁messages	-6288
▁opposite	-6289
▁payments	-6290
▁programs	-6291
▁scalable	-6292
▁subarray	-6293
▁survival	-6294
:202351102	-6295
erequisite	-6296
especially	-6297
ifications	-6298
prediction	-6299
▁Analytics	-6300
▁CelesTrak	-6301
▁Different	-6302
▁Euclidean	-6303
▁Generated	-6304
▁Operation	-6305
▁Technical	-6306
▁according	-6307
▁benchmark	-6308
▁candidate	-6309
▁construct	-6310
▁continues	-6311
▁determine	-6312
▁difficult	-6313
▁endmodule	-6314
▁expensive	-6315
▁gradients	-6316
▁imbalance	-6317
▁marginals	-6318
▁providing	-6319
▁reduction	-6320
▁reporting	-6321
▁resources	-6322
▁resulting	-6323
▁stability	-6324
▁typically	-6325
▁Algorithms	-6326
▁Assessment	-6327
▁Kubernetes	-6328
▁Operations	-6329
▁Repository	-6330
▁Resolution	-6331
▁University	-6332
▁admissible	-6333
▁businesses	-6334
▁calculated	-6335
▁containing	-6336
▁discovered	-6337
▁fraudulent	-6338
▁simplified	-6339
iiitvadodara	-6340
▁192.168.5.2	-6341
▁Correlation	-6342
▁Explanation	-6343
▁acquisition	-6344
▁challenging	-6345
▁coordinates	-6346
▁destination	-6347
▁klasifikasi	-6348
▁methodology	-6349
▁transformed	-6350
▁transmitter	-6351
▁192.168.10.1	-6352
▁capabilities	-6353
▁highlighting	-6354
▁implications	-6355
▁intersection	-6356
▁respectively	-6357
▁Environmental	-6358
▁approximately	-6359
▁distributions	-6360
▁authentication	-6361
▁interpretation	-6362
▁misinformation	-6363
)]	-6364
-0	-6365
2;	-6366
6%	-6367
73	-6368
AS	-6369
BO	-6370
LR	-6371
RS	-6372
Re	-6373
[2	-6374
^8	-6375
aM	-6376
az	-6377
fs	-6378
hi	-6379
iy	-6380
ke	-6381
qz	-6382
sm	-6383
ui	-6384
xE	-6385
xy	-6386
{1	-6387
}^	-6388
');	-6389
();	-6390
(*)	-6391
+08	-6392
-5-	-6393
.32	-6394
00+	-6395
1).	-6396
1,2	-6397
1-\	-6398
2),	-6399
2=4	-6400
5%)	-6401
::2	-6402
Add	-6403
Dev	-6404
Mod	-6405
_1=	-6406
afe	-6407
aha	-6408
aik	-6409
api	-6410
aun	-6411
cal	-6412
cel	-6413
dir	-6414
erc	-6415
has	-6416
ica	-6417
lap	-6418
rod	-6419
son	-6420
unc	-6421
use	-6422
▁([	-6423
▁02	-6424
▁0:	-6425
▁2\	-6426
▁33	-6427
▁62	-6428
▁63	-6429
▁67	-6430
▁81	-6431
▁9,	-6432
▁AT	-6433
▁CD	-6434
▁Ur	-6435
▁[7	-6436
▁aw	-6437
▁mv	-6438
▁py	-6439
)=0.	-6440
.163	-6441
0,0)	-6442
0.5)	-6443
1011	-6444
90^\	-6445
=125	-6446
CIrP	-6447
Data	-6448
Four	-6449
Line	-6450
addr	-6451
arch	-6452
arni	-6453
arto	-6454
esis	-6455
free	-6456
hood	-6457
iant	-6458
iers	-6459
ihat	-6460
ilai	-6461
isor	-6462
lood	-6463
more	-6464
ocks	-6465
oler	-6466
oral	-6467
otes	-6468
recy	-6469
sive	-6470
udaM	-6471
ueue	-6472
▁(%)	-6473
▁(03	-6474
▁(4)	-6475
▁0.2	-6476
▁1-2	-6477
▁112	-6478
▁15%	-6479
▁17:	-6480
▁18:	-6481
▁19:	-6482
▁2.4	-6483
▁25]	-6484
▁3.5	-6485
▁310	-6486
▁5.3	-6487
▁59)	-6488
▁6.2	-6489
▁7.2	-6490
▁EIg	-6491
▁Git	-6492
▁IIL	-6493
▁Imp	-6494
▁JWT	-6495
▁Lik	-6496
▁MEM	-6497
▁Our	-6498
▁PDF	-6499
▁Pos	-6500
▁RAM	-6501
▁RDF	-6502
▁RIP	-6503
▁SGD	-6504
▁SJF	-6505
▁XOR	-6506
▁[2,	-6507
▁act	-6508
▁air	-6509
▁ast	-6510
▁bah	-6511
▁bps	-6512
▁cat	-6513
▁kar	-6514
▁kel	-6515
▁lot	-6516
▁mas	-6517
▁mon	-6518
▁roc	-6519
▁tle	-6520
Cross	-6521
Final	-6522
ITION	-6523
afety	-6524
agers	-6525
anged	-6526
aptop	-6527
arily	-6528
ategy	-6529
aunch	-6530
ember	-6531
ensus	-6532
event	-6533
input	-6534
iring	-6535
ithub	-6536
karni	-6537
kumar	-6538
metry	-6539
olves	-6540
orial	-6541
osure	-6542
owers	-6543
print	-6544
serve	-6545
style	-6546
uffle	-6547
ulner	-6548
ypoth	-6549
▁0.10	-6550
▁Circ	-6551
▁Conv	-6552
▁DESC	-6553
▁Face	-6554
▁Mode	-6555
▁More	-6556
▁NSSA	-6557
▁Next	-6558
▁OspF	-6559
▁PCon	-6560
▁PHYS	-6561
▁Pres	-6562
▁Self	-6563
▁Unix	-6564
▁atau	-6565
▁bias	-6566
▁bisa	-6567
▁dead	-6568
▁doub	-6569
▁hard	-6570
▁hash	-6571
▁heav	-6572
▁here	-6573
▁hota	-6574
▁idea	-6575
▁kept	-6576
▁keys	-6577
▁live	-6578
▁logs	-6579
▁save	-6580
▁thus	-6581
▁upon	-6582
▁week	-6583
Fourth	-6584
ITICAL	-6585
Normal	-6586
Salary	-6587
_{13}(	-6588
academ	-6589
chools	-6590
google	-6591
isease	-6592
itance	-6593
ricult	-6594
server	-6595
switch	-6596
though	-6597
▁2020,	-6598
▁Along	-6599
▁Barto	-6600
▁Codes	-6601
▁Files	-6602
▁Hello	-6603
▁Kyber	-6604
▁ORDER	-6605
▁React	-6606
▁UNION	-6607
▁chain	-6608
▁cudaM	-6609
▁cycle	-6610
▁delay	-6611
▁forms	-6612
▁goals	-6613
▁great	-6614
▁hello	-6615
▁jenis	-6616
▁leads	-6617
▁login	-6618
▁rdata	-6619
▁redef	-6620
▁sites	-6621
▁sizes	-6622
▁torch	-6623
▁trust	-6624
▁until	-6625
▁whose	-6626
7142857	-6627
ategory	-6628
connect	-6629
default	-6630
ections	-6631
icksort	-6632
ierarch	-6633
inaries	-6634
initial	-6635
onomous	-6636
ructive	-6637
▁Assume	-6638
▁Commun	-6639
▁Kapoor	-6640
▁Keying	-6641
▁Passed	-6642
▁Public	-6643
▁Reason	-6644
▁States	-6645
▁Street	-6646
▁Sutton	-6647
▁Theory	-6648
▁Update	-6649
▁Volume	-6650
▁affect	-6651
▁belong	-6652
▁bottom	-6653
▁charts	-6654
▁except	-6655
▁ground	-6656
▁necess	-6657
▁origin	-6658
▁papers	-6659
▁person	-6660
▁rabbit	-6661
▁rather	-6662
▁recall	-6663
▁secure	-6664
▁shanan	-6665
▁starts	-6666
▁stored	-6667
▁stream	-6668
▁travel	-6669
▁unique	-6670
92.168.1	-6671
academia	-6672
anations	-6673
ibraries	-6674
inciples	-6675
olerance	-6676
umptions	-6677
unjukkan	-6678
ventions	-6679
ynthetic	-6680
▁192.163	-6681
▁Analyze	-6682
▁Coordin	-6683
▁Density	-6684
▁Latency	-6685
▁Manager	-6686
▁Scaling	-6687
▁Through	-6688
▁actions	-6689
▁balance	-6690
▁chapter	-6691
▁chilies	-6692
▁columns	-6693
▁concent	-6694
▁ensures	-6695
▁handles	-6696
▁history	-6697
▁horizon	-6698
▁mention	-6699
▁primary	-6700
▁purpose	-6701
▁reduced	-6702
▁release	-6703
▁rewards	-6704
▁sebesar	-6705
▁sliding	-6706
▁tracert	-6707
▁traffic	-6708
.........	-6709
hematical	-6710
iterature	-6711
structure	-6712
▁(2023511	-6713
▁Contents	-6714
▁Detailed	-6715
▁Evaluate	-6716
▁Geometry	-6717
▁Logistic	-6718
▁Opposite	-6719
▁Personal	-6720
▁Projects	-6721
▁Received	-6722
▁adoption	-6723
▁affected	-6724
▁checkout	-6725
▁diagrams	-6726
▁directed	-6727
▁employee	-6728
▁enhanced	-6729
▁everyone	-6730
▁frontend	-6731
▁movement	-6732
▁portable	-6733
▁previous	-6734
▁produced	-6735
▁received	-6736
▁relative	-6737
▁repeated	-6738
▁reproduc	-6739
▁schedule	-6740
▁sessions	-6741
▁shuffles	-6742
▁synchron	-6743
▁velocity	-6744
▁wearable	-6745
ufacturing	-6746
validation	-6747
ynchronous	-6748
▁Breathing	-6749
▁Character	-6750
▁Connected	-6751
▁Frequency	-6752
▁Immersive	-6753
▁Inference	-6754
▁Operators	-6755
▁Secondary	-6756
▁Selective	-6757
▁behaviors	-6758
▁character	-6759
▁comparing	-6760
▁contribut	-6761
▁criterion	-6762
▁empirical	-6763
▁erroneous	-6764
▁improving	-6765
▁interpret	-6766
▁operating	-6767
▁optimized	-6768
▁political	-6769
▁positions	-6770
▁posterior	-6771
▁Background	-6772
▁Collection	-6773
▁Historical	-6774
▁Identifier	-6775
▁discussion	-6776
▁foundation	-6777
▁networking	-6778
▁percentage	-6779
▁polynomial	-6780
▁revolution	-6781
▁thresholds	-6782
▁Conjunction	-6783
▁Fundamental	-6784
▁Statistical	-6785
▁commodities	-6786
▁innovations	-6787
▁operational	-6788
▁predecessor	-6789
▁pretraining	-6790
▁statistical	-6791
▁192.168.100.	-6792
▁192.168.30.1	-6793
▁Construction	-6794
▁Multivariate	-6795
▁foundational	-6796
▁intermediate	-6797
▁participants	-6798
▁unsupervised	-6799
▁192.168.20.2:	-6800
▁Relationships	-6801
▁computational	-6802
▁cyberbullying	-6803
▁Classification	-6804
▁Infrastructure	-6805
▁Interpretation	-6806
▁multiplicative	-6807
▁specifications	-6808
▁transformation	-6809
▁142.251.220.46:	-6810
▁192.168.10.0/24	-6811
".	-6812
)2	-6813
)?	-6814
,;	-6815
-6	-6816
.5	-6817
.\	-6818
1[	-6819
2/	-6820
21	-6821
2|	-6822
3/	-6823
8:	-6824
98	-6825
:3	-6826
:>	-6827
AF	-6828
Dp	-6829
GE	-6830
GS	-6831
IV	-6832
Ip	-6833
LY	-6834
MI	-6835
OM	-6836
SS	-6837
So	-6838
UI	-6839
UN	-6840
Up	-6841
bb	-6842
br	-6843
dd	-6844
gp	-6845
kh	-6846
lm	-6847
sL	-6848
si	-6849
vm	-6850
xA	-6851
xD	-6852
·1	-6853
−2	-6854
▁≤	-6855
(1+	-6856
)),	-6857
)=2	-6858
/5)	-6859
0^\	-6860
180	-6861
200	-6862
255	-6863
3.5	-6864
3.8	-6865
30)	-6866
30/	-6867
73)	-6868
8).	-6869
=2)	-6870
BFS	-6871
DPc	-6872
Dec	-6873
GBN	-6874
GBo	-6875
GRA	-6876
Hub	-6877
LOY	-6878
LdB	-6879
MPI	-6880
Out	-6881
Pre	-6882
Sub	-6883
You	-6884
[3]	-6885
_0)	-6886
_{(	-6887
abr	-6888
ape	-6889
aya	-6890
ban	-6891
ben	-6892
cpf	-6893
cpy	-6894
dec	-6895
ees	-6896
epr	-6897
gun	-6898
ins	-6899
ita	-6900
jac	-6901
png	-6902
ues	-6903
uml	-6904
ups	-6905
ush	-6906
usi	-6907
}{2	-6908
▁&=	-6909
▁2^	-6910
▁66	-6911
▁76	-6912
▁94	-6913
▁BL	-6914
▁Bh	-6915
▁DA	-6916
▁DB	-6917
▁FC	-6918
▁MO	-6919
▁Ml	-6920
▁RT	-6921
▁SP	-6922
▁Ve	-6923
▁ZH	-6924
▁[1	-6925
▁[9	-6926
▁cd	-6927
▁fa	-6928
▁my	-6929
▁nn	-6930
▁pC	-6931
▁zk	-6932
▁̃C	-6933
▁̃X	-6934
▁̸=	-6935
-0.5	-6936
0,0,	-6937
6667	-6938
LTER	-6939
MOTE	-6940
ROLL	-6941
Send	-6942
Step	-6943
^{-1	-6944
_2),	-6945
adar	-6946
aktu	-6947
amps	-6948
anya	-6949
avit	-6950
base	-6951
bone	-6952
chor	-6953
come	-6954
cons	-6955
elah	-6956
epat	-6957
epth	-6958
erma	-6959
fold	-6960
hand	-6961
hell	-6962
ifts	-6963
ikan	-6964
ilon	-6965
isks	-6966
itim	-6967
look	-6968
oupl	-6969
perf	-6970
pyth	-6971
sock	-6972
turn	-6973
unit	-6974
uted	-6975
wind	-6976
{1}{	-6977
▁(4,	-6978
▁(5,	-6979
▁1.8	-6980
▁300	-6981
▁312	-6982
▁4.4	-6983
▁64-	-6984
▁70%	-6985
▁80%	-6986
▁ALL	-6987
▁Ach	-6988
▁CLI	-6989
▁CPT	-6990
▁CRE	-6991
▁EMP	-6992
▁END	-6993
▁Ele	-6994
▁INR	-6995
▁IOS	-6996
▁Ins	-6997
▁MAX	-6998
▁Max	-6999
▁Ont	-7000
▁Std	-7001
▁Sum	-7002
▁TRA	-7003
▁Uns	-7004
▁ant	-7005
▁don	-7006
▁emo	-7007
▁eps	-7008
▁fam	-7009
▁hex	-7010
▁his	-7011
▁omp	-7012
▁pcd	-7013
▁sem	-7014
▁sys	-7015
▁wor	-7016
)*0.4	-7017
-2025	-7018
80::2	-7019
First	-7020
Input	-7021
LOYEE	-7022
_1=0,	-7023
ambda	-7024
anges	-7025
anned	-7026
antic	-7027
boxed	-7028
buNet	-7029
build	-7030
dfrac	-7031
ediat	-7032
erang	-7033
erate	-7034
found	-7035
hania	-7036
icken	-7037
iliki	-7038
iques	-7039
isasi	-7040
iting	-7041
layer	-7042
nship	-7043
ocial	-7044
osing	-7045
ottom	-7046
outer	-7047
score	-7048
since	-7049
stdio	-7050
subif	-7051
umnya	-7052
uplic	-7053
wtime	-7054
▁(100	-7055
▁0.01	-7056
▁0.15	-7057
▁0.20	-7058
▁0.35	-7059
▁10−3	-7060
▁Comb	-7061
▁Decl	-7062
▁Demo	-7063
▁FMix	-7064
▁Hill	-7065
▁INTE	-7066
▁Perf	-7067
▁Pers	-7068
▁SHAP	-7069
▁Send	-7070
▁Take	-7071
▁Tick	-7072
▁Util	-7073
▁XGBo	-7074
▁adap	-7075
▁arch	-7076
▁beta	-7077
▁bike	-7078
▁byte	-7079
▁dikh	-7080
▁dout	-7081
▁five	-7082
▁fold	-7083
▁fork	-7084
▁gate	-7085
▁home	-7086
▁meet	-7087
▁past	-7088
▁phys	-7089
▁said	-7090
▁tele	-7091
▁umum	-7092
▁vers	-7093
/10.11	-7094
arithm	-7095
arrays	-7096
atches	-7097
bility	-7098
botics	-7099
dicted	-7100
encing	-7101
engine	-7102
espite	-7103
greedy	-7104
kinter	-7105
matrix	-7106
number	-7107
openmp	-7108
otonic	-7109
python	-7110
ribute	-7111
rieval	-7112
ropout	-7113
socket	-7114
source	-7115
string	-7116
uitive	-7117
▁2015.	-7118
▁ALTER	-7119
▁Adapt	-7120
▁Cases	-7121
▁Citra	-7122
▁Early	-7123
▁Gbike	-7124
▁Learn	-7125
▁Print	-7126
▁Queue	-7127
▁Recur	-7128
▁SMOTE	-7129
▁Their	-7130
▁Young	-7131
▁cepat	-7132
▁close	-7133
▁exist	-7134
▁finds	-7135
▁float	-7136
▁globe	-7137
▁ideal	-7138
▁initi	-7139
▁inver	-7140
▁later	-7141
▁lines	-7142
▁might	-7143
▁named	-7144
▁night	-7145
▁nilai	-7146
▁pages	-7147
▁recur	-7148
▁sekit	-7149
▁sends	-7150
▁tahap	-7151
▁topic	-7152
▁waktu	-7153
▁yadav	-7154
antages	-7155
imarily	-7156
inition	-7157
irected	-7158
jacency	-7159
pective	-7160
perform	-7161
ralized	-7162
▁00:00:	-7163
▁CREATE	-7164
▁Epochs	-7165
▁Finals	-7166
▁GitHub	-7167
▁Graphs	-7168
▁Market	-7169
▁Mechan	-7170
▁Models	-7171
▁Neural	-7172
▁OpenMP	-7173
▁Player	-7174
▁Record	-7175
▁Sender	-7176
▁Vision	-7177
▁assets	-7178
▁builds	-7179
▁button	-7180
▁cities	-7181
▁clouds	-7182
▁collab	-7183
▁deploy	-7184
▁driver	-7185
▁earned	-7186
▁epochs	-7187
▁formed	-7188
▁instit	-7189
▁instru	-7190
▁moving	-7191
▁nature	-7192
▁observ	-7193
▁offers	-7194
▁placed	-7195
▁positi	-7196
▁preemp	-7197
▁protot	-7198
▁reason	-7199
▁recent	-7200
▁rental	-7201
▁sizeof	-7202
▁submit	-7203
▁though	-7204
▁vulner	-7205
CRITICAL	-7206
ditional	-7207
friendly	-7208
igration	-7209
irection	-7210
ommodity	-7211
shuffles	-7212
teradian	-7213
tization	-7214
▁((1,-1,	-7215
▁Algebra	-7216
▁Discuss	-7217
▁Impacts	-7218
▁Keyword	-7219
▁Library	-7220
▁Methods	-7221
▁Metrics	-7222
▁Modular	-7223
▁Neutral	-7224
▁Physics	-7225
▁Predict	-7226
▁Reading	-7227
▁Toolkit	-7228
▁XGBoost	-7229
▁ability	-7230
▁already	-7231
▁causing	-7232
▁combine	-7233
▁compact	-7234
▁culture	-7235
▁derived	-7236
▁dilihat	-7237
▁divided	-7238
▁enables	-7239
▁epsilon	-7240
▁handled	-7241
▁healthy	-7242
▁install	-7243
▁lengths	-7244
▁options	-7245
▁partial	-7246
▁payload	-7247
▁reading	-7248
▁recover	-7249
▁regions	-7250
▁revenue	-7251
▁scripts	-7252
▁secrecy	-7253
▁sensing	-7254
▁sharing	-7255
▁similar	-7256
▁visited	-7257
▁windows	-7258
/10.1007/	-7259
commodity	-7260
ightarrow	-7261
ivamkumar	-7262
knowledge	-7263
localhost	-7264
tralytics	-7265
▁Adoption	-7266
▁Concepts	-7267
▁Critical	-7268
▁EMPLOYEE	-7269
▁Economic	-7270
▁Facebook	-7271
▁Gradient	-7272
▁Improves	-7273
▁Insights	-7274
▁Negative	-7275
▁Parabola	-7276
▁Positive	-7277
▁Synchron	-7278
▁Techniqu	-7279
▁Username	-7280
▁Variable	-7281
▁binaries	-7282
▁diagonal	-7283
▁focusing	-7284
▁formulas	-7285
▁improves	-7286
▁industry	-7287
▁interpol	-7288
▁involves	-7289
▁machines	-7290
▁manually	-7291
▁medicine	-7292
▁momentum	-7293
▁printing	-7294
▁purchase	-7295
▁segments	-7296
▁shopping	-7297
▁stopping	-7298
▁terhadap	-7299
▁triangle	-7300
▁volatile	-7301
▁wireless	-7302
abrication	-7303
▁Calculate	-7304
▁Construct	-7305
▁Inserting	-7306
▁Integrity	-7307
▁Optimizer	-7308
▁Parameter	-7309
▁Rendering	-7310
▁Simulated	-7311
▁Singhania	-7312
▁analyzing	-7313
▁annealing	-7314
▁carefully	-7315
▁companies	-7316
▁decreases	-7317
▁dependent	-7318
▁establish	-7319
▁instances	-7320
▁iteration	-7321
▁reachable	-7322
▁reference	-7323
avitational	-7324
probability	-7325
▁Adaptation	-7326
▁Annotation	-7327
▁Differenti	-7328
▁Extraction	-7329
▁Instructor	-7330
▁Modulation	-7331
▁Scheduling	-7332
▁approaches	-7333
▁background	-7334
▁boundaries	-7335
▁concurrent	-7336
▁convention	-7337
▁directions	-7338
▁downloaded	-7339
▁especially	-7340
▁expression	-7341
▁instructor	-7342
▁likelihood	-7343
▁processors	-7344
▁properties	-7345
▁separation	-7346
▁similarity	-7347
▁submission	-7348
▁supervised	-7349
▁underwater	-7350
ustification	-7351
▁(202351130)	-7352
▁10.47.85.60	-7353
▁192.168.1.1	-7354
▁Assumptions	-7355
▁DIMENSIONAL	-7356
▁Explainable	-7357
▁Implemented	-7358
▁Probability	-7359
▁Subtraction	-7360
▁Transformer	-7361
▁alternative	-7362
▁appropriate	-7363
▁constructed	-7364
▁correlation	-7365
▁differences	-7366
▁educational	-7367
▁improvement	-7368
▁investigate	-7369
▁menunjukkan	-7370
▁shoplifting	-7371
▁Instructions	-7372
▁Surveillance	-7373
▁fluctuations	-7374
▁Reinforcement	-7375
▁sustainability	-7376
▁192.168.30.0/24	-7377
▁microcontroller	-7378
";	-7379
#2	-7380
'.	-7381
((	-7382
(9	-7383
-8	-7384
/,	-7385
/0	-7386
06	-7387
3-	-7388
38	-7389
4_	-7390
5-	-7391
:=	-7392
;\	-7393
=3	-7394
=;	-7395
>>	-7396
AA	-7397
DL	-7398
HE	-7399
HO	-7400
IF	-7401
IZ	-7402
Ne	-7403
OV	-7404
Ob	-7405
Or	-7406
QC	-7407
Rp	-7408
SR	-7409
XR	-7410
[0	-7411
\\	-7412
^4	-7413
bc	-7414
cP	-7415
fg	-7416
kk	-7417
la	-7418
nu	-7419
oy	-7420
pa	-7421
sk	-7422
vv	-7423
wa	-7424
yi	-7425
{(	-7426
{,	-7427
▁!	-7428
▁σ	-7429
▁⟨	-7430
-2,	-7431
.10	-7432
.17	-7433
0.8	-7434
001	-7435
1);	-7436
10)	-7437
128	-7438
14,	-7439
168	-7440
202	-7441
32-	-7442
4).	-7443
5).	-7444
:**	-7445
BER	-7446
CUT	-7447
Det	-7448
Enc	-7449
Enh	-7450
FSR	-7451
GER	-7452
Int	-7453
ORY	-7454
PCR	-7455
QUE	-7456
RTF	-7457
SQL	-7458
UGT	-7459
VIS	-7460
YST	-7461
_2\	-7462
alk	-7463
bps	-7464
dig	-7465
eem	-7466
eff	-7467
gnn	-7468
har	-7469
hit	-7470
how	-7471
igm	-7472
isi	-7473
lsx	-7474
mon	-7475
oad	-7476
ogo	-7477
orb	-7478
pic	-7479
pty	-7480
qrt	-7481
raf	-7482
reg	-7483
rem	-7484
uah	-7485
uly	-7486
unk	-7487
vas	-7488
yol	-7489
▁&&	-7490
▁(7	-7491
▁1⁄	-7492
▁3-	-7493
▁5)	-7494
▁6]	-7495
▁98	-7496
▁>=	-7497
▁BC	-7498
▁DO	-7499
▁Fs	-7500
▁Gu	-7501
▁HO	-7502
▁IA	-7503
▁IF	-7504
▁Ir	-7505
▁Jo	-7506
▁Ms	-7507
▁Na	-7508
▁SH	-7509
▁Sa	-7510
▁ek	-7511
▁ir	-7512
▁pS	-7513
▁sy	-7514
(0)=	-7515
016/	-7516
130/	-7517
3:0]	-7518
ALYS	-7519
ARKS	-7520
Bcos	-7521
INAL	-7522
ITTI	-7523
Istm	-7524
JECT	-7525
List	-7526
NSOR	-7527
Name	-7528
Orks	-7529
Test	-7530
WiFi	-7531
aday	-7532
afka	-7533
anck	-7534
ario	-7535
asan	-7536
atif	-7537
aton	-7538
best	-7539
eart	-7540
gate	-7541
iber	-7542
igor	-7543
imal	-7544
ired	-7545
isti	-7546
itud	-7547
most	-7548
norm	-7549
obot	-7550
omin	-7551
onav	-7552
raft	-7553
risk	-7554
ropy	-7555
self	-7556
stat	-7557
stud	-7558
tege	-7559
tiap	-7560
trip	-7561
vlan	-7562
zure	-7563
▁(11	-7564
▁-2(	-7565
▁02-	-7566
▁104	-7567
▁11,	-7568
▁17,	-7569
▁199	-7570
▁239	-7571
▁23:	-7572
▁25:	-7573
▁45%	-7574
▁ADD	-7575
▁Abd	-7576
▁App	-7577
▁Bal	-7578
▁Bel	-7579
▁But	-7580
▁DFD	-7581
▁Dst	-7582
▁EDF	-7583
▁Hai	-7584
▁LdA	-7585
▁MAT	-7586
▁MEN	-7587
▁MOD	-7588
▁MUL	-7589
▁ODR	-7590
▁PSK	-7591
▁RNN	-7592
▁Rod	-7593
▁Sel	-7594
▁TCP	-7595
▁Try	-7596
▁[5]	-7597
▁arr	-7598
▁cei	-7599
▁dip	-7600
▁dot	-7601
▁itu	-7602
▁len	-7603
▁mul	-7604
▁ptr	-7605
▁try	-7606
▁vvv	-7607
▁yet	-7608
.174.	-7609
0,0),	-7610
=0.00	-7611
ABcos	-7612
Block	-7613
COUNT	-7614
Frame	-7615
Incre	-7616
UGTOR	-7617
YSTEM	-7618
agree	-7619
alloc	-7620
amesh	-7621
asier	-7622
astal	-7623
azing	-7624
begin	-7625
cache	-7626
check	-7627
cloud	-7628
cular	-7629
elled	-7630
emble	-7631
entor	-7632
equal	-7633
ested	-7634
etter	-7635
frame	-7636
gener	-7637
group	-7638
ident	-7639
image	-7640
isten	-7641
learn	-7642
macOS	-7643
oding	-7644
optim	-7645
orted	-7646
prove	-7647
racts	-7648
rowth	-7649
tered	-7650
total	-7651
ullah	-7652
users	-7653
value	-7654
while	-7655
yolov	-7656
▁0.25	-7657
▁2021	-7658
▁9973	-7659
▁Also	-7660
▁Ansh	-7661
▁Auto	-7662
▁Call	-7663
▁Clus	-7664
▁DecB	-7665
▁Easy	-7666
▁Edit	-7667
▁Full	-7668
▁Good	-7669
▁Host	-7670
▁Irac	-7671
▁Khal	-7672
▁Khem	-7673
▁LFSR	-7674
▁Make	-7675
▁Meas	-7676
▁Orig	-7677
▁Plug	-7678
▁Prev	-7679
▁RMSE	-7680
▁Radi	-7681
▁Reli	-7682
▁Shap	-7683
▁Shop	-7684
▁Star	-7685
▁Symb	-7686
▁Task	-7687
▁Tele	-7688
▁Text	-7689
▁Very	-7690
▁WEEK	-7691
▁YOLO	-7692
▁[13,	-7693
▁auto	-7694
▁bana	-7695
▁bank	-7696
▁baru	-7697
▁berb	-7698
▁bert	-7699
▁bogo	-7700
▁card	-7701
▁cash	-7702
▁date	-7703
▁demo	-7704
▁fair	-7705
▁foot	-7706
▁happ	-7707
▁hops	-7708
▁host	-7709
▁isol	-7710
▁lost	-7711
▁menj	-7712
▁meta	-7713
▁perc	-7714
▁qual	-7715
▁rent	-7716
▁reve	-7717
▁site	-7718
▁situ	-7719
▁vary	-7720
▁wave	-7721
-1,-1)	-7722
ALYSIS	-7723
Device	-7724
GRADES	-7725
Python	-7726
abases	-7727
alerts	-7728
amless	-7729
annels	-7730
around	-7731
client	-7732
cludes	-7733
create	-7734
enders	-7735
ercial	-7736
github	-7737
gunaan	-7738
havior	-7739
hingga	-7740
igmoid	-7741
ipping	-7742
normal	-7743
onesia	-7744
ounger	-7745
pagate	-7746
rivate	-7747
rivial	-7748
stance	-7749
static	-7750
status	-7751
ulator	-7752
urable	-7753
ything	-7754
▁10.31	-7755
▁2000)	-7756
▁2014.	-7757
▁2020.	-7758
▁About	-7759
▁Bound	-7760
▁Daily	-7761
▁Every	-7762
▁Inher	-7763
▁Login	-7764
▁Panel	-7765
▁Paper	-7766
▁Quick	-7767
▁Sinar	-7768
▁Solar	-7769
▁Stock	-7770
▁Verma	-7771
▁Where	-7772
▁Zhang	-7773
▁[7:0]	-7774
▁aggre	-7775
▁annot	-7776
▁bahwa	-7777
▁black	-7778
▁blood	-7779
▁broad	-7780
▁built	-7781
▁email	-7782
▁empty	-7783
▁extra	-7784
▁fails	-7785
▁highl	-7786
▁refer	-7787
▁remov	-7788
▁sheet	-7789
▁youth	-7790
Journal	-7791
allenge	-7792
aluable	-7793
aptures	-7794
compose	-7795
display	-7796
earched	-7797
ecurity	-7798
entific	-7799
itively	-7800
lightly	-7801
ometric	-7802
ossible	-7803
project	-7804
utorial	-7805
ypothes	-7806
▁(2020)	-7807
▁8.8.8.	-7808
▁Adults	-7809
▁Career	-7810
▁Circle	-7811
▁Comple	-7812
▁Cycles	-7813
▁Detect	-7814
▁Ethics	-7815
▁Govern	-7816
▁Gradep	-7817
▁Inputs	-7818
▁Metric	-7819
▁Mohity	-7820
▁Moment	-7821
▁Planck	-7822
▁Proper	-7823
▁Return	-7824
▁Unlike	-7825
▁banyak	-7826
▁biased	-7827
▁bursts	-7828
▁cables	-7829
▁clicks	-7830
▁closed	-7831
▁docker	-7832
▁doubie	-7833
▁enough	-7834
▁finish	-7835
▁hingga	-7836
▁inters	-7837
▁matter	-7838
▁menyeb	-7839
▁moment	-7840
▁neural	-7841
▁obstac	-7842
▁occurs	-7843
▁parent	-7844
▁pratik	-7845
▁propos	-7846
▁regard	-7847
▁scores	-7848
▁sebuah	-7849
▁sender	-7850
▁spread	-7851
▁square	-7852
▁stabil	-7853
▁suffic	-7854
▁topics	-7855
STRUGTOR	-7856
andwidth	-7857
ediatric	-7858
eenagers	-7859
lections	-7860
onential	-7861
pervisor	-7862
priority	-7863
uplicate	-7864
▁50,000+	-7865
▁Adolesc	-7866
▁Categor	-7867
▁Climate	-7868
▁Created	-7869
▁Disease	-7870
▁INTEGER	-7871
▁Iridium	-7872
▁Khemani	-7873
▁PHYSICS	-7874
▁Purpose	-7875
▁Surface	-7876
▁Theorem	-7877
▁Trigger	-7878
▁Unified	-7879
▁Version	-7880
▁[120/1]	-7881
▁aligned	-7882
▁aspects	-7883
▁caching	-7884
▁carrier	-7885
▁certain	-7886
▁circles	-7887
▁circuit	-7888
▁clarity	-7889
▁concern	-7890
▁contact	-7891
▁decoder	-7892
▁detects	-7893
▁deteksi	-7894
▁express	-7895
▁greatly	-7896
▁implies	-7897
▁integer	-7898
▁letters	-7899
▁mandana	-7900
▁maximal	-7901
▁nearest	-7902
▁parents	-7903
▁percent	-7904
▁prevent	-7905
▁rapidly	-7906
▁respect	-7907
▁science	-7908
▁solving	-7909
▁sorting	-7910
▁unknown	-7911
▁written	-7912
/10.1016/	-7913
resistant	-7914
▁Appendix	-7915
▁Behavior	-7916
▁Boosting	-7917
▁Creating	-7918
▁Customer	-7919
▁Electric	-7920
▁Embedded	-7921
▁Exercise	-7922
▁Fairness	-7923
▁Flexible	-7924
▁Keywords	-7925
▁Measured	-7926
▁Pointers	-7927
▁Variants	-7928
▁WhatsApp	-7929
▁aligning	-7930
▁birthday	-7931
▁contrast	-7932
▁criteria	-7933
▁electric	-7934
▁electron	-7935
▁evolving	-7936
▁exchange	-7937
▁existing	-7938
▁explicit	-7939
▁incorpor	-7940
▁inferred	-7941
▁instance	-7942
▁literacy	-7943
▁pandemic	-7944
▁profound	-7945
▁relevant	-7946
▁requests	-7947
▁resource	-7948
▁starting	-7949
▁suggests	-7950
▁timeline	-7951
▁variance	-7952
▁variants	-7953
plementary	-7954
structions	-7955
▁Challenge	-7956
▁Efficient	-7957
▁Evolution	-7958
▁Filtering	-7959
▁Optimized	-7960
▁Processes	-7961
▁Quicksort	-7962
▁Selection	-7963
▁addiction	-7964
▁architect	-7965
▁challenge	-7966
▁combining	-7967
▁computing	-7968
▁discourse	-7969
▁distances	-7970
▁emergence	-7971
▁emotional	-7972
▁estimated	-7973
▁expressed	-7974
▁generally	-7975
▁materials	-7976
▁mechanism	-7977
▁metaverse	-7978
▁positives	-7979
▁primarily	-7980
▁proactive	-7981
▁prognosis	-7982
▁protocols	-7983
▁recording	-7984
▁requiring	-7985
▁retrieval	-7986
▁screening	-7987
▁sedangkan	-7988
▁validated	-7989
▁workloads	-7990
▁workspace	-7991
conjunction	-7992
predictions	-7993
ultralytics	-7994
▁Appendices	-7995
▁Arithmetic	-7996
▁Conditions	-7997
▁Encryption	-7998
▁Foundation	-7999
▁Healthcare	-8000
▁Likelihood	-8001
▁Mitigation	-8002
▁Production	-8003
▁Resistance	-8004
▁Systematic	-8005
▁arithmetic	-8006
▁capability	-8007
▁categories	-8008
▁commercial	-8009
▁completely	-8010
▁completion	-8011
▁confidence	-8012
▁considered	-8013
▁controlled	-8014
▁controller	-8015
▁differenti	-8016
▁ecological	-8017
▁engagement	-8018
▁laboratory	-8019
▁multiplied	-8020
▁normalized	-8021
▁orthogonal	-8022
▁prevention	-8023
▁repository	-8024
▁responsive	-8025
▁sequential	-8026
▁stochastic	-8027
▁sufficient	-8028
▁visualized	-8029
displaystyle	-8030
▁192.168.4.1	-8031
▁192.168.4.2	-8032
▁Acquisition	-8033
▁Autoencoder	-8034
▁Declaration	-8035
▁Inheritance	-8036
▁Transmitter	-8037
▁Ultralytics	-8038
▁Uncertainty	-8039
▁attenuation	-8040
▁conclusions	-8041
▁consumption	-8042
▁identifying	-8043
▁observation	-8044
▁preferences	-8045
▁scalability	-8046
▁shopkeepers	-8047
ulticommodity	-8048
▁192.168.30.3	-8049
▁Augmentation	-8050
▁Professional	-8051
▁Successfully	-8052
▁Technologies	-8053
▁Transmission	-8054
▁achievements	-8055
▁correlations	-8056
▁disconnected	-8057
▁displacement	-8058
▁explanations	-8059
▁notification	-8060
▁prerequisite	-8061
▁satisfaction	-8062
▁independently	-8063
▁manufacturing	-8064
▁perpendicular	-8065
▁Virtualization	-8066
▁communications	-8067
▁interconnected	-8068
▁visualizations	-8069
!)	-8070
!-	-8071
$(	-8072
+\	-8073
/.	-8074
/:	-8075
3}	-8076
4/	-8077
41	-8078
49	-8079
5#	-8080
56	-8081
8-	-8082
8]	-8083
94	-8084
:0	-8085
:4	-8086
="	-8087
=4	-8088
=[	-8089
Ac	-8090
Cp	-8091
Do	-8092
EH	-8093
EK	-8094
FP	-8095
Fl	-8096
GL	-8097
Hz	-8098
IH	-8099
Ie	-8100
KE	-8101
MB	-8102
Me	-8103
NX	-8104
OK	-8105
OP	-8106
PL	-8107
Py	-8108
RI	-8109
SK	-8110
UD	-8111
Ul	-8112
VE	-8113
WS	-8114
WW	-8115
Wh	-8116
YU	-8117
][	-8118
^(	-8119
bn	-8120
cI	-8121
cr	-8122
dl	-8123
mu	-8124
vt	-8125
yd	-8126
{-	-8127
·2	-8128
▁φ	-8129
▁′	-8130
▁⊕	-8131
⟩⟨	-8132
!-!	-8133
').	-8134
+09	-8135
-20	-8136
-3)	-8137
-5:	-8138
0/2	-8139
1)(	-8140
1),	-8141
1.2	-8142
16,	-8143
1])	-8144
2+(	-8145
232	-8146
465	-8147
5.)	-8148
9).	-8149
927	-8150
=0.	-8151
=10	-8152
=1;	-8153
ANC	-8154
Acc	-8155
Att	-8156
CDE	-8157
DAY	-8158
DFS	-8159
For	-8160
GPA	-8161
How	-8162
IPO	-8163
Map	-8164
Max	-8165
PUR	-8166
RAY	-8167
RED	-8168
Row	-8169
SAT	-8170
Sta	-8171
URE	-8172
Web	-8173
[0]	-8174
[15	-8175
]=\	-8176
_1\	-8177
_3,	-8178
ags	-8179
aij	-8180
aml	-8181
big	-8182
bin	-8183
but	-8184
clk	-8185
det	-8186
din	-8187
dle	-8188
ece	-8189
eer	-8190
erb	-8191
fin	-8192
fol	-8193
fty	-8194
ili	-8195
iot	-8196
irf	-8197
iya	-8198
ked	-8199
ksi	-8200
mAP	-8201
med	-8202
mem	-8203
mix	-8204
msg	-8205
nap	-8206
nas	-8207
nib	-8208
non	-8209
oto	-8210
pth	-8211
rak	-8212
rep	-8213
sed	-8214
sem	-8215
sur	-8216
tio	-8217
try	-8218
tun	-8219
ugs	-8220
ync	-8221
zed	-8222
{,}	-8223
·29	-8224
▁(#	-8225
▁(-	-8226
▁(−	-8227
▁-4	-8228
▁-=	-8229
▁1=	-8230
▁3\	-8231
▁3]	-8232
▁71	-8233
▁78	-8234
▁8)	-8235
▁86	-8236
▁93	-8237
▁Br	-8238
▁Bu	-8239
▁CU	-8240
▁LA	-8241
▁LR	-8242
▁Mr	-8243
▁My	-8244
▁Of	-8245
▁RA	-8246
▁Sk	-8247
▁TX	-8248
▁US	-8249
▁UX	-8250
▁Wu	-8251
▁[6	-8252
▁ge	-8253
▁kQ	-8254
▁ma	-8255
▁na	-8256
▁ps	-8257
▁rs	-8258
▁r⃗	-8259
▁uk	-8260
▁vi	-8261
▁≡1	-8262
-168	-8263
0.0.	-8264
0.10	-8265
3333	-8266
3523	-8267
6.8%	-8268
70^\	-8269
=0.0	-8270
=1}^	-8271
Auth	-8272
Conv	-8273
DecB	-8274
FACE	-8275
IMAL	-8276
INCT	-8277
LINE	-8278
Rows	-8279
Term	-8280
_3))	-8281
_3),	-8282
_3)=	-8283
ajor	-8284
akur	-8285
anti	-8286
antu	-8287
apis	-8288
araf	-8289
arat	-8290
aren	-8291
arna	-8292
atit	-8293
aves	-8294
beda	-8295
both	-8296
ches	-8297
code	-8298
dist	-8299
ecks	-8300
ertP	-8301
fast	-8302
hark	-8303
harm	-8304
high	-8305
hoot	-8306
ians	-8307
icym	-8308
ided	-8309
igon	-8310
ikam	-8311
imin	-8312
inem	-8313
istr	-8314
kspl	-8315
onel	-8316
oule	-8317
oxel	-8318
pass	-8319
plom	-8320
plot	-8321
proc	-8322
ract	-8323
rode	-8324
roub	-8325
rows	-8326
same	-8327
save	-8328
sqrt	-8329
ster	-8330
tent	-8331
ubes	-8332
ugar	-8333
uksi	-8334
yaml	-8335
ying	-8336
yond	-8337
▁$50	-8338
▁((\	-8339
▁(32	-8340
▁103	-8341
▁106	-8342
▁12,	-8343
▁122	-8344
▁123	-8345
▁125	-8346
▁130	-8347
▁18,	-8348
▁21:	-8349
▁224	-8350
▁22:	-8351
▁24:	-8352
▁250	-8353
▁3.0	-8354
▁40,	-8355
▁50%	-8356
▁6.1	-8357
▁6.3	-8358
▁ASK	-8359
▁Any	-8360
▁CRT	-8361
▁Cir	-8362
▁Cof	-8363
▁EGP	-8364
▁ENG	-8365
▁Est	-8366
▁FPS	-8367
▁FSK	-8368
▁Fit	-8369
▁Hal	-8370
▁Han	-8371
▁III	-8372
▁Its	-8373
▁Jha	-8374
▁LdB	-8375
▁MAC	-8376
▁MDP	-8377
▁Map	-8378
▁Mid	-8379
▁Net	-8380
▁PQC	-8381
▁RMS	-8382
▁SIG	-8383
▁SOL	-8384
▁Sah	-8385
▁TIL	-8386
▁TLS	-8387
▁UGM	-8388
▁WsL	-8389
▁[1,	-8390
▁aud	-8391
▁buf	-8392
▁cnt	-8393
▁den	-8394
▁dro	-8395
▁gcc	-8396
▁gnn	-8397
▁hal	-8398
▁kem	-8399
▁led	-8400
▁leg	-8401
▁mAP	-8402
▁mil	-8403
▁ord	-8404
▁phr	-8405
▁rom	-8406
▁ten	-8407
▁tom	-8408
▁too	-8409
▁uns	-8410
-1,1,	-8411
0001,	-8412
31:0]	-8413
Batch	-8414
Inter	-8415
Model	-8416
Score	-8417
Staff	-8418
Total	-8419
admap	-8420
ancer	-8421
andit	-8422
ayout	-8423
close	-8424
color	-8425
cover	-8426
dapat	-8427
emcpy	-8428
folio	-8429
gmail	-8430
henom	-8431
infty	-8432
ising	-8433
ister	-8434
lease	-8435
lects	-8436
lying	-8437
mands	-8438
night	-8439
norad	-8440
obaan	-8441
ostic	-8442
otion	-8443
pared	-8444
ratic	-8445
ridge	-8446
shade	-8447
stage	-8448
tient	-8449
torch	-8450
ujuan	-8451
ungan	-8452
yster	-8453
{0,1}	-8454
▁(0.1	-8455
▁0.06	-8456
▁0.1)	-8457
▁0.30	-8458
▁0.90	-8459
▁1-3:	-8460
▁100%	-8461
▁192.	-8462
▁2017	-8463
▁2020	-8464
▁2023	-8465
▁4-5:	-8466
▁6-7:	-8467
▁<=#2	-8468
▁CPTs	-8469
▁Coun	-8470
▁DBMS	-8471
▁DHCp	-8472
▁Dead	-8473
▁Fine	-8474
▁Hash	-8475
▁Have	-8476
▁Iter	-8477
▁Join	-8478
▁LEFT	-8479
▁Need	-8480
▁Netw	-8481
▁Nice	-8482
▁None	-8483
▁ONNX	-8484
▁Plot	-8485
▁Prog	-8486
▁Pure	-8487
▁REST	-8488
▁Raag	-8489
▁Sens	-8490
▁Snap	-8491
▁Tail	-8492
▁Tang	-8493
▁Tech	-8494
▁View	-8495
▁Wang	-8496
▁baby	-8497
▁devi	-8498
▁driv	-8499
▁east	-8500
▁endl	-8501
▁fing	-8502
▁harm	-8503
▁hold	-8504
▁lain	-8505
▁laws	-8506
▁lies	-8507
▁look	-8508
▁mask	-8509
▁mood	-8510
▁peak	-8511
▁plot	-8512
▁plus	-8513
▁poor	-8514
▁prio	-8515
▁proc	-8516
▁publ	-8517
▁rock	-8518
▁slot	-8519
▁suff	-8520
▁sure	-8521
▁temp	-8522
▁terb	-8523
▁tour	-8524
▁vast	-8525
▁vlan	-8526
▁west	-8527
▁wire	-8528
▁word	-8529
-2025)	-8530
Atheta	-8531
Client	-8532
ENROLL	-8533
Report	-8534
Router	-8535
antage	-8536
asible	-8537
celest	-8538
cusses	-8539
cycles	-8540
differ	-8541
elatih	-8542
elines	-8543
ession	-8544
esteem	-8545
filter	-8546
gether	-8547
ieties	-8548
illing	-8549
inking	-8550
iteria	-8551
itudes	-8552
konstr	-8553
ksplor	-8554
lambda	-8555
lookup	-8556
nibals	-8557
ooling	-8558
perior	-8559
phones	-8560
places	-8561
reject	-8562
rivers	-8563
series	-8564
sively	-8565
social	-8566
titled	-8567
umping	-8568
upakan	-8569
volusi	-8570
▁0.018	-8571
▁0.85,	-8572
▁10000	-8573
▁150.1	-8574
▁2017.	-8575
▁2021.	-8576
▁9973)	-8577
▁Allow	-8578
▁Broad	-8579
▁Clock	-8580
▁Count	-8581
▁Cyber	-8582
▁EIgRp	-8583
▁Equal	-8584
▁Games	-8585
▁Hands	-8586
▁Heart	-8587
▁Joule	-8588
▁MARKS	-8589
▁Micro	-8590
▁Mixed	-8591
▁Order	-8592
▁Paste	-8593
▁Ratio	-8594
▁Score	-8595
▁Stage	-8596
▁Third	-8597
▁Wires	-8598
▁Words	-8599
▁ZHANG	-8600
▁admin	-8601
▁ahead	-8602
▁bring	-8603
▁displ	-8604
▁grade	-8605
▁hands	-8606
▁heavy	-8607
▁imple	-8608
▁infin	-8609
▁latih	-8610
▁loads	-8611
▁manip	-8612
▁mener	-8613
▁mixed	-8614
▁moved	-8615
▁orbit	-8616
▁perme	-8617
▁prove	-8618
▁quasi	-8619
▁ratio	-8620
▁reson	-8621
▁risks	-8622
▁sebel	-8623
▁sense	-8624
▁sides	-8625
▁skill	-8626
▁sound	-8627
▁stays	-8628
▁takes	-8629
▁token	-8630
▁troub	-8631
▁trunk	-8632
▁uname	-8633
▁uncom	-8634
▁usual	-8635
▁whole	-8636
▁words	-8637
.174.60	-8638
Address	-8639
Scripts	-8640
Threads	-8641
aligned	-8642
ambahan	-8643
ametric	-8644
aterial	-8645
atitude	-8646
clusive	-8647
earning	-8648
esterol	-8649
estment	-8650
igorous	-8651
ilities	-8652
itimate	-8653
knowled	-8654
lecting	-8655
leshoot	-8656
ocation	-8657
ondents	-8658
otogram	-8659
oupling	-8660
station	-8661
ustries	-8662
▁(2023)	-8663
▁(2025)	-8664
▁192168	-8665
▁Accept	-8666
▁Adding	-8667
▁Analog	-8668
▁Anchor	-8669
▁Attend	-8670
▁Author	-8671
▁Bluepr	-8672
▁Button	-8673
▁Camera	-8674
▁ChatGP	-8675
▁Cipher	-8676
▁Cofact	-8677
▁Column	-8678
▁Copper	-8679
▁Deepak	-8680
▁Driver	-8681
▁Extend	-8682
▁FORMUL	-8683
▁Format	-8684
▁Groups	-8685
▁Growth	-8686
▁Instru	-8687
▁Linked	-8688
▁Mining	-8689
▁Newton	-8690
▁Pascal	-8691
▁Policy	-8692
▁Puzzle	-8693
▁Robots	-8694
▁SYSTEM	-8695
▁Satell	-8696
▁Secure	-8697
▁Single	-8698
▁Sorted	-8699
▁Taking	-8700
▁Trends	-8701
▁assist	-8702
▁beyond	-8703
▁camera	-8704
▁caused	-8705
▁cofact	-8706
▁consec	-8707
▁covari	-8708
▁credit	-8709
▁decide	-8710
▁detail	-8711
▁easier	-8712
▁emphas	-8713
▁encour	-8714
▁exceed	-8715
▁folder	-8716
▁geomet	-8717
▁karena	-8718
▁kepler	-8719
▁marble	-8720
▁medium	-8721
▁melody	-8722
▁modulo	-8723
▁obtain	-8724
▁phenom	-8725
▁propor	-8726
▁raised	-8727
▁resort	-8728
▁reward	-8729
▁setiap	-8730
▁shaped	-8731
▁shifts	-8732
▁showed	-8733
▁spaces	-8734
▁sphere	-8735
▁strict	-8736
▁supply	-8737
▁syaraf	-8738
▁things	-8739
▁timing	-8740
▁transc	-8741
▁ukuran	-8742
▁upload	-8743
▁widely	-8744
Accounts	-8745
Backpack	-8746
DISTINCT	-8747
Distance	-8748
Enhanced	-8749
SubBytes	-8750
ertPanel	-8751
ications	-8752
ificance	-8753
inations	-8754
inematic	-8755
oization	-8756
onavirus	-8757
riefcase	-8758
software	-8759
strained	-8760
weighted	-8761
▁5000:00	-8762
▁AlbuNet	-8763
▁Capture	-8764
▁Channel	-8765
▁Classes	-8766
▁Content	-8767
▁Culture	-8768
▁Defined	-8769
▁Derived	-8770
▁Deteksi	-8771
▁Finance	-8772
▁Forward	-8773
▁Include	-8774
▁Missing	-8775
▁PROJECT	-8776
▁Physica	-8777
▁Pointer	-8778
▁Profile	-8779
▁Protege	-8780
▁Quantum	-8781
▁Radical	-8782
▁Reality	-8783
▁Reduced	-8784
▁SECTION	-8785
▁Scalars	-8786
▁Segment	-8787
▁Sensors	-8788
▁Service	-8789
▁Sharing	-8790
▁Spatial	-8791
▁Tension	-8792
▁Updates	-8793
▁amazing	-8794
▁archive	-8795
▁backend	-8796
▁benefit	-8797
▁bicycle	-8798
▁buttons	-8799
▁chicken	-8800
▁climate	-8801
▁cliques	-8802
▁cluster	-8803
▁comment	-8804
▁compreh	-8805
▁counter	-8806
▁dikhata	-8807
▁divider	-8808
▁encoder	-8809
▁engaged	-8810
▁evident	-8811
▁facilit	-8812
▁forming	-8813
▁greater	-8814
▁induced	-8815
▁labeled	-8816
▁matches	-8817
▁melatih	-8818
▁menjadi	-8819
▁neutral	-8820
▁opinion	-8821
▁profess	-8822
▁reached	-8823
▁reality	-8824
▁receive	-8825
▁reshape	-8826
▁seperti	-8827
▁setting	-8828
▁storing	-8829
▁subject	-8830
▁subsets	-8831
▁towards	-8832
▁trigger	-8833
▁usually	-8834
▁variant	-8835
▁verifyl	-8836
Increment	-8837
celestrak	-8838
iological	-8839
olesterol	-8840
olutional	-8841
oneliness	-8842
orizontal	-8843
upervised	-8844
ysteresis	-8845
▁ANALYSIS	-8846
▁Category	-8847
▁Checksum	-8848
▁Commerce	-8849
▁Criteria	-8850
▁Equation	-8851
▁External	-8852
▁Hierarch	-8853
▁Possible	-8854
▁Property	-8855
▁Proposed	-8856
▁Relation	-8857
▁Shuffles	-8858
▁Strategy	-8859
▁SubBytes	-8860
▁achieves	-8861
▁activity	-8862
▁children	-8863
▁cleaning	-8864
▁collider	-8865
▁conmands	-8866
▁creation	-8867
▁duration	-8868
▁ensemble	-8869
▁executed	-8870
▁interpre	-8871
▁introduc	-8872
▁involved	-8873
▁maximize	-8874
▁membantu	-8875
▁memiliki	-8876
▁notebook	-8877
▁opinions	-8878
▁optimize	-8879
▁overview	-8880
▁performa	-8881
▁presence	-8882
▁property	-8883
▁recorded	-8884
▁romantic	-8885
▁seamless	-8886
▁separate	-8887
▁settings	-8888
▁strongly	-8889
▁together	-8890
▁yourself	-8891
ectiveness	-8892
konstruksi	-8893
lexibility	-8894
otherboard	-8895
switchport	-8896
▁Constants	-8897
▁Execution	-8898
▁Heuristic	-8899
▁Highlight	-8900
▁INTERFACE	-8901
▁Ilustrasi	-8902
▁Indonesia	-8903
▁Interpret	-8904
▁PARTITION	-8905
▁ParallelN	-8906
▁Platforms	-8907
▁Political	-8908
▁Procedure	-8909
▁Published	-8910
▁QUESTIONS	-8911
▁Resistive	-8912
▁Subsystem	-8913
▁Wireshark	-8914
▁adjacency	-8915
▁alongside	-8916
▁avoidance	-8917
▁cannibals	-8918
▁deadlines	-8919
▁directory	-8920
▁discounts	-8921
▁disorders	-8922
▁employees	-8923
▁equations	-8924
▁evolution	-8925
▁generates	-8926
▁graphical	-8927
▁intuitive	-8928
▁libraries	-8929
▁logarithm	-8930
▁mentioned	-8931
▁merupakan	-8932
▁movements	-8933
▁naturally	-8934
▁necessary	-8935
▁overnight	-8936
▁percobaan	-8937
▁presented	-8938
▁societies	-8939
▁switching	-8940
▁teenagers	-8941
▁timestamp	-8942
▁workplace	-8943
Shoplifting	-8944
iotechnical	-8945
▁Advantages	-8946
▁Ciphertext	-8947
▁Conference	-8948
▁Configured	-8949
▁DIMENSIONS	-8950
▁Decryption	-8951
▁Directions	-8952
▁Generation	-8953
▁Gradepoint	-8954
▁Parameters	-8955
▁Parametric	-8956
▁Pseudocode	-8957
▁Transition	-8958
▁assessment	-8959
▁behaviours	-8960
▁consisting	-8961
▁covariance	-8962
▁cudaMemcpy	-8963
▁decryption	-8964
▁eventually	-8965
▁excitation	-8966
▁guaranteed	-8967
▁highlights	-8968
▁implements	-8969
▁indicators	-8970
▁industries	-8971
▁institutes	-8972
▁literature	-8973
▁menerapkan	-8974
▁objectives	-8975
▁observable	-8976
▁performing	-8977
▁predicting	-8978
▁presenting	-8979
▁priorities	-8980
▁regression	-8981
▁researched	-8982
▁starvation	-8983
▁vulnerable	-8984
conjunctions	-8985
otogrammetry	-8986
▁192.168.2.2	-8987
▁192.168.3.2	-8988
▁192.168.5.1	-8989
▁Adolescents	-8990
▁Categorical	-8991
▁Consistency	-8992
▁Discussions	-8993
▁Distributed	-8994
▁Exploration	-8995
▁Geometrical	-8996
▁Immigration	-8997
▁Operational	-8998
▁Preparation	-8999
▁Reliability	-9000
▁Significant	-9001
▁Transitions	-9002
▁aggregation	-9003
▁bottlenecks	-9004
▁combination	-9005
▁communities	-9006
▁correctness	-9007
▁corresponds	-9008
▁determining	-9009
▁examination	-9010
▁exponential	-9011
▁generations	-9012
▁implemented	-9013
▁instruments	-9014
▁preparation	-9015
▁recommended	-9016
▁transmitted	-9017
▁192.168.2.2:	-9018
▁Displacement	-9019
▁Participants	-9020
▁alternatives	-9021
▁asynchronous	-9022
▁conjunctions	-9023
▁continuously	-9024
▁contributing	-9025
▁measurements	-9026
▁missionaries	-9027
▁partitioning	-9028
▁proportional	-9029
▁segmentation	-9030
▁troubleshoot	-9031
▁Gravitational	-9032
▁Perpendicular	-9033
▁Specification	-9034
▁architectures	-9035
▁factorization	-9036
▁interventions	-9037
▁organizations	-9038
▁uncomfortable	-9039
▁Communications	-9040
▁Initialization	-9041
▁PConfiguration	-9042
▁Specifications	-9043
▁hyperparameter	-9044
▁multiplication	-9045
▁transformative	-9046
▁Synchronization	-9047
▁representations	-9048
":	-9049
(3	-9050
)[	-9051
+5	-9052
,"	-9053
-9	-9054
.(	-9055
.4	-9056
0°	-9057
1⟩	-9058
3_	-9059
4;	-9060
8_	-9061
91	-9062
96	-9063
?"	-9064
AU	-9065
Am	-9066
Ar	-9067
BE	-9068
BN	-9069
BV	-9070
B⃗	-9071
CA	-9072
CV	-9073
Cs	-9074
Dr	-9075
ET	-9076
Fs	-9077
Gs	-9078
Ns	-9079
Of	-9080
PR	-9081
QR	-9082
["	-9083
](	-9084
]-	-9085
_\	-9086
aT	-9087
aa	-9088
ae	-9089
bs	-9090
dw	-9091
iD	-9092
kg	-9093
kr	-9094
pc	-9095
tb	-9096
td	-9097
uT	-9098
ux	-9099
va	-9100
{2	-9101
|0	-9102
·9	-9103
×2	-9104
▁î	-9105
▁ĵ	-9106
▁∗	-9107
(50	-9108
(64	-9109
***	-9110
++;	-9111
-11	-9112
-2(	-9113
.1%	-9114
.3)	-9115
/30	-9116
0))	-9117
0.7	-9118
01:	-9119
1.5	-9120
101	-9121
12)	-9122
12:	-9123
13)	-9124
16)	-9125
17,	-9126
2))	-9127
2):	-9128
2}(	-9129
307	-9130
440	-9131
50)	-9132
53·	-9133
574	-9134
6,;	-9135
67.	-9136
80,	-9137
881	-9138
95,	-9139
=0\	-9140
=1]	-9141
AND	-9142
AVG	-9143
DAR	-9144
DLC	-9145
Dis	-9146
Doc	-9147
EAM	-9148
Ext	-9149
GNN	-9150
Idx	-9151
LdA	-9152
Log	-9153
MAE	-9154
NSA	-9155
Par	-9156
Per	-9157
Red	-9158
Sim	-9159
TIM	-9160
TTP	-9161
TUR	-9162
VER	-9163
Val	-9164
[2]	-9165
_2(	-9166
_3=	-9167
aga	-9168
ahi	-9169
ald	-9170
ali	-9171
alm	-9172
amn	-9173
anj	-9174
arv	-9175
dev	-9176
eft	-9177
ems	-9178
enn	-9179
eqz	-9180
exe	-9181
gcd	-9182
ged	-9183
gov	-9184
guy	-9185
hil	-9186
hin	-9187
hir	-9188
hna	-9189
hol	-9190
ios	-9191
irm	-9192
jal	-9193
leh	-9194
lic	-9195
lig	-9196
mar	-9197
ney	-9198
ocr	-9199
ons	-9200
oom	-9201
orn	-9202
ptr	-9203
sel	-9204
sep	-9205
sev	-9206
sim	-9207
sor	-9208
tid	-9209
uel	-9210
urt	-9211
yes	-9212
yml	-9213
you	-9214
}(\	-9215
·47	-9216
·59	-9217
▁(8	-9218
▁);	-9219
▁.(	-9220
▁04	-9221
▁0⃗	-9222
▁1–	-9223
▁2-	-9224
▁3;	-9225
▁4-	-9226
▁79	-9227
▁85	-9228
▁89	-9229
▁91	-9230
▁<<	-9231
▁=(	-9232
▁AM	-9233
▁CN	-9234
▁CT	-9235
▁Fe	-9236
▁GR	-9237
▁Ho	-9238
▁Ke	-9239
▁Ll	-9240
▁Os	-9241
▁Pa	-9242
▁Pe	-9243
▁RC	-9244
▁Wi	-9245
▁[,	-9246
▁ai	-9247
▁fd	-9248
▁hr	-9249
▁ia	-9250
▁jo	-9251
▁nt	-9252
▁ol	-9253
▁tk	-9254
▁ur	-9255
▁xy	-9256
▁xî	-9257
▁yĵ	-9258
▁};	-9259
####	-9260
(10,	-9261
-020	-9262
...,	-9263
0.3:	-9264
0/0.	-9265
1)).	-9266
1)):	-9267
1),(	-9268
1626	-9269
1714	-9270
5.2%	-9271
=0).	-9272
ADME	-9273
BSTR	-9274
Bout	-9275
Cent	-9276
Desc	-9277
Down	-9278
ENDE	-9279
Free	-9280
Isha	-9281
Main	-9282
Peer	-9283
RAUD	-9284
RETI	-9285
Risk	-9286
SION	-9287
True	-9288
XXXX	-9289
[20]	-9290
_1)\	-9291
_3(\	-9292
agar	-9293
aian	-9294
akin	-9295
amed	-9296
angk	-9297
argv	-9298
asis	-9299
aste	-9300
asts	-9301
bris	-9302
cape	-9303
ceil	-9304
chat	-9305
copy	-9306
deep	-9307
echo	-9308
exts	-9309
func	-9310
itya	-9311
ixup	-9312
lish	-9313
main	-9314
mess	-9315
msel	-9316
node	-9317
omew	-9318
oute	-9319
ovid	-9320
pmod	-9321
rack	-9322
rata	-9323
rate	-9324
ribe	-9325
roid	-9326
send	-9327
tein	-9328
type	-9329
ulty	-9330
unia	-9331
utuh	-9332
xlsx	-9333
}=0)	-9334
▁(1-	-9335
▁(8,	-9336
▁(9,	-9337
▁1/2	-9338
▁102	-9339
▁107	-9340
▁108	-9341
▁11)	-9342
▁121	-9343
▁126	-9344
▁14,	-9345
▁168	-9346
▁197	-9347
▁2))	-9348
▁2-3	-9349
▁264	-9350
▁26:	-9351
▁27:	-9352
▁28:	-9353
▁30%	-9354
▁302	-9355
▁32(	-9356
▁4.0	-9357
▁4.5	-9358
▁443	-9359
▁450	-9360
▁5.4	-9361
▁50,	-9362
▁89.	-9363
▁90°	-9364
▁Act	-9365
▁BGP	-9366
▁CRC	-9367
▁CUT	-9368
▁Cur	-9369
▁DEC	-9370
▁Dan	-9371
▁Due	-9372
▁Era	-9373
▁Fix	-9374
▁Fol	-9375
▁GUI	-9376
▁Guj	-9377
▁Has	-9378
▁Her	-9379
▁ISS	-9380
▁Iog	-9381
▁Kar	-9382
▁Ltd	-9383
▁May	-9384
▁NIL	-9385
▁Num	-9386
▁OFF	-9387
▁PIH	-9388
▁Pvt	-9389
▁RIp	-9390
▁Ram	-9391
▁Sid	-9392
▁Tou	-9393
▁UBV	-9394
▁YES	-9395
▁[11	-9396
▁box	-9397
▁cpi	-9398
▁csv	-9399
▁dam	-9400
▁dib	-9401
▁ear	-9402
▁eas	-9403
▁egg	-9404
▁fab	-9405
▁fix	-9406
▁gir	-9407
▁her	-9408
▁him	-9409
▁kec	-9410
▁nal	-9411
▁occ	-9412
▁oil	-9413
▁pip	-9414
▁put	-9415
▁ram	-9416
▁say	-9417
▁tes	-9418
▁tri	-9419
▁www	-9420
/100)	-9421
0001)	-9422
0100)	-9423
11.32	-9424
12.99	-9425
ABCDE	-9426
Cache	-9427
Delta	-9428
ECTOR	-9429
Gener	-9430
Graph	-9431
KITTI	-9432
Layer	-9433
MMARY	-9434
Means	-9435
React	-9436
Round	-9437
Start	-9438
Table	-9439
VIDIA	-9440
_2=1)	-9441
adhil	-9442
after	-9443
aijer	-9444
akers	-9445
alone	-9446
alued	-9447
ambah	-9448
ankit	-9449
annya	-9450
ateau	-9451
batch	-9452
bital	-9453
ctive	-9454
efits	-9455
ellow	-9456
ented	-9457
ertia	-9458
estim	-9459
going	-9460
guyen	-9461
house	-9462
ieved	-9463
ipped	-9464
karan	-9465
noise	-9466
notes	-9467
onomy	-9468
order	-9469
osion	-9470
plate	-9471
power	-9472
radic	-9473
retch	-9474
ronti	-9475
toral	-9476
tuned	-9477
video	-9478
works	-9479
yping	-9480
▁(10,	-9481
▁0.2)	-9482
▁0.96	-9483
▁100.	-9484
▁1130	-9485
▁1195	-9486
▁122,	-9487
▁128-	-9488
▁2001	-9489
▁2022	-9490
▁2968	-9491
▁Agar	-9492
▁Bsin	-9493
▁DHCP	-9494
▁Dalm	-9495
▁Draw	-9496
▁Enab	-9497
▁GRAY	-9498
▁Game	-9499
▁Gand	-9500
▁Grab	-9501
▁Heat	-9502
▁Hebb	-9503
▁ICLR	-9504
▁ISRO	-9505
▁Idea	-9506
▁Isha	-9507
▁Istm	-9508
▁JoIN	-9509
▁Jobs	-9510
▁LIKE	-9511
▁Left	-9512
▁Many	-9513
▁NeTw	-9514
▁Once	-9515
▁Pair	-9516
▁Pati	-9517
▁Proc	-9518
▁Rect	-9519
▁SRTF	-9520
▁Team	-9521
▁Tree	-9522
▁Uses	-9523
▁Viva	-9524
▁WiFi	-9525
▁Year	-9526
▁acqu	-9527
▁ansh	-9528
▁asks	-9529
▁awal	-9530
▁baik	-9531
▁bear	-9532
▁dekh	-9533
▁dram	-9534
▁echo	-9535
▁fake	-9536
▁fuel	-9537
▁gets	-9538
▁gram	-9539
▁gray	-9540
▁gzip	-9541
▁hain	-9542
▁half	-9543
▁hoon	-9544
▁inta	-9545
▁isha	-9546
▁jump	-9547
▁medi	-9548
▁oleh	-9549
▁ones	-9550
▁pick	-9551
▁quad	-9552
▁raha	-9553
▁rare	-9554
▁rely	-9555
▁scen	-9556
▁sedi	-9557
▁soil	-9558
▁surf	-9559
▁tiap	-9560
▁venv	-9561
▁viva	-9562
▁{-1,	-9563
162636	-9564
CTIONS	-9565
Driven	-9566
Indian	-9567
Kapoor	-9568
RODUCT	-9569
Random	-9570
SENSOR	-9571
Search	-9572
[15:0]	-9573
[31:0]	-9574
amount	-9575
ampled	-9576
atible	-9577
attern	-9578
author	-9579
avings	-9580
branch	-9581
custom	-9582
eleton	-9583
ellent	-9584
empted	-9585
enable	-9586
estamp	-9587
favors	-9588
ferred	-9589
fusion	-9590
greSQL	-9591
hicles	-9592
icense	-9593
ientpy	-9594
ifiers	-9595
ignore	-9596
ileage	-9597
ingkat	-9598
inuous	-9599
isture	-9600
iverse	-9601
length	-9602
ocrati	-9603
oosing	-9604
orhood	-9605
prises	-9606
rieved	-9607
rought	-9608
rupted	-9609
satell	-9610
sevier	-9611
tainer	-9612
tennas	-9613
texttt	-9614
thread	-9615
tigate	-9616
versal	-9617
visual	-9618
▁0.001	-9619
▁02-09	-9620
▁2019,	-9621
▁2024.	-9622
▁Avoid	-9623
▁Below	-9624
▁Capac	-9625
▁China	-9626
▁Covid	-9627
▁Dream	-9628
▁FINAL	-9629
▁Fetch	-9630
▁Globe	-9631
▁Hosts	-9632
▁Hours	-9633
▁Innov	-9634
▁Kafka	-9635
▁Large	-9636
▁LiDAR	-9637
▁Organ	-9638
▁Prove	-9639
▁Rashm	-9640
▁Ready	-9641
▁Reddy	-9642
▁Staff	-9643
▁Taken	-9644
▁Union	-9645
▁VLANs	-9646
▁[15].	-9647
▁accum	-9648
▁accur	-9649
▁alone	-9650
▁alpha	-9651
▁bstar	-9652
▁comes	-9653
▁delta	-9654
▁drawn	-9655
▁dunia	-9656
▁exhib	-9657
▁fewer	-9658
▁hosts	-9659
▁house	-9660
▁items	-9661
▁kelas	-9662
▁lists	-9663
▁litre	-9664
▁moder	-9665
▁naive	-9666
▁namun	-9667
▁overl	-9668
▁parti	-9669
▁perce	-9670
▁proof	-9671
▁radii	-9672
▁react	-9673
▁regul	-9674
▁seven	-9675
▁shape	-9676
▁signa	-9677
▁slope	-9678
▁stack	-9679
▁store	-9680
▁sugar	-9681
▁suite	-9682
▁tanpa	-9683
▁telah	-9684
▁texts	-9685
▁trell	-9686
▁typed	-9687
▁views	-9688
▁waves	-9689
BSTRING	-9690
Chapter	-9691
Desktop	-9692
Process	-9693
Project	-9694
RETIRED	-9695
adkarni	-9696
arative	-9697
areness	-9698
asional	-9699
cessive	-9700
correct	-9701
covered	-9702
espread	-9703
forward	-9704
fulness	-9705
hinagar	-9706
iratory	-9707
irectly	-9708
isation	-9709
iveness	-9710
jective	-9711
mselves	-9712
ousands	-9713
plainer	-9714
plotlib	-9715
predict	-9716
quantum	-9717
ricated	-9718
ructors	-9719
surface	-9720
tenance	-9721
tracert	-9722
ultiply	-9723
uniform	-9724
utuhkan	-9725
▁(2024)	-9726
▁Active	-9727
▁Aditya	-9728
▁Aspect	-9729
▁Autumn	-9730
▁Basics	-9731
▁Cancer	-9732
▁Cybers	-9733
▁Decent	-9734
▁During	-9735
▁Fadhil	-9736
▁Filter	-9737
▁Grades	-9738
▁Hatrix	-9739
▁Hybrid	-9740
▁INTERN	-9741
▁Making	-9742
▁Master	-9743
▁Mentor	-9744
▁Nguyen	-9745
▁Period	-9746
▁Points	-9747
▁Prices	-9748
▁README	-9749
▁Radian	-9750
▁Remote	-9751
▁SALARY	-9752
▁SELEct	-9753
▁Safety	-9754
▁Sahare	-9755
▁Script	-9756
▁Shapes	-9757
▁Symbol	-9758
▁TRANSA	-9759
▁Tables	-9760
▁Thakur	-9761
▁Thread	-9762
▁United	-9763
▁VECTOR	-9764
▁Values	-9765
▁Weight	-9766
▁[31:0]	-9767
▁adults	-9768
▁advice	-9769
▁akurat	-9770
▁angles	-9771
▁antara	-9772
▁append	-9773
▁approx	-9774
▁arises	-9775
▁arrive	-9776
▁assume	-9777
▁checks	-9778
▁covers	-9779
▁decomp	-9780
▁degrad	-9781
▁delays	-9782
▁easily	-9783
▁extend	-9784
▁failed	-9785
▁gender	-9786
▁giving	-9787
▁govern	-9788
▁harass	-9789
▁header	-9790
▁helped	-9791
▁hybrid	-9792
▁intarr	-9793
▁itself	-9794
▁laptop	-9795
▁launch	-9796
▁lights	-9797
▁linked	-9798
▁loaded	-9799
▁mengat	-9800
▁middle	-9801
▁misses	-9802
▁nearly	-9803
▁orient	-9804
▁passed	-9805
▁played	-9806
▁possib	-9807
▁pytest	-9808
▁ranges	-9809
▁refine	-9810
▁reject	-9811
▁robots	-9812
▁router	-9813
▁salary	-9814
▁schema	-9815
▁signed	-9816
▁sparse	-9817
▁stores	-9818
▁toward	-9819
▁worlds	-9820
0.002019	-9821
99999999	-9822
Detailed	-9823
Rashmika	-9824
ablished	-9825
aditions	-9826
andscape	-9827
athamesh	-9828
function	-9829
idelines	-9830
identity	-9831
ifically	-9832
ingkatan	-9833
missions	-9834
plomatic	-9835
readable	-9836
semester	-9837
tivation	-9838
▁(2015).	-9839
▁1311.32	-9840
▁1312.99	-9841
▁192-168	-9842
▁2023**:	-9843
▁Actions	-9844
▁Backend	-9845
▁Century	-9846
▁ChatGPT	-9847
▁College	-9848
▁Company	-9849
▁Concern	-9850
▁Conduct	-9851
▁Despite	-9852
▁Dropout	-9853
▁Factors	-9854
▁Finding	-9855
▁Gujarat	-9856
▁Heatmap	-9857
▁History	-9858
▁Imaging	-9859
▁Inertia	-9860
▁Instant	-9861
▁Medical	-9862
▁Members	-9863
▁Modules	-9864
▁Passing	-9865
▁Perfect	-9866
▁Planned	-9867
▁Present	-9868
▁Regular	-9869
▁Routers	-9870
▁SYSTEMS	-9871
▁Section	-9872
▁Shuffle	-9873
▁Sliding	-9874
▁Tkinter	-9875
▁banking	-9876
▁berbeda	-9877
▁billing	-9878
▁brought	-9879
▁busybox	-9880
▁carried	-9881
▁country	-9882
▁credits	-9883
▁deliver	-9884
▁desktop	-9885
▁divides	-9886
▁driving	-9887
▁efforts	-9888
▁enabled	-9889
▁factory	-9890
▁filters	-9891
▁fingers	-9892
▁generic	-9893
▁growing	-9894
▁journal	-9895
▁loading	-9896
▁logical	-9897
▁masukan	-9898
▁matched	-9899
▁members	-9900
▁minutes	-9901
▁modeled	-9902
▁passive	-9903
▁phrases	-9904
▁picture	-9905
▁policym	-9906
▁promote	-9907
▁radical	-9908
▁renders	-9909
▁replies	-9910
▁reveals	-9911
▁sampled	-9912
▁scaling	-9913
▁schemes	-9914
▁schools	-9915
▁sekitar	-9916
▁sending	-9917
▁started	-9918
▁startup	-9919
▁strings	-9920
▁tahapan	-9921
▁weather	-9922
▁workers	-9923
Listening	-9924
^{(1)})^2	-9925
adjacency	-9926
atibility	-9927
configure	-9928
estration	-9929
frequency	-9930
inematics	-9931
istration	-9932
izability	-9933
ksplorasi	-9934
operation	-9935
sequences	-9936
vestigate	-9937
▁5000.00,	-9938
▁Abdullah	-9939
▁Agricult	-9940
▁Although	-9941
▁Assessed	-9942
▁Backbone	-9943
▁Bayesian	-9944
▁Channels	-9945
▁Dynamics	-9946
▁Elsevier	-9947
▁Ethernet	-9948
▁Explored	-9949
▁Improved	-9950
▁Industry	-9951
▁Internal	-9952
▁Maintain	-9953
▁Material	-9954
▁NetwOrks	-9955
▁Optimize	-9956
▁Planning	-9957
▁Presence	-9958
▁Printing	-9959
▁Rashmika	-9960
▁Reliable	-9961
▁Required	-9962
▁Shortest	-9963
▁Socially	-9964
▁Straight	-9965
▁Survival	-9966
▁TEACHERS	-9967
▁Topology	-9968
▁adjusted	-9969
▁antennas	-9970
▁assessed	-9971
▁boosting	-9972
▁captures	-9973
▁comments	-9974
▁compound	-9975
▁controls	-9976
▁decrease	-9977
▁describe	-9978
▁discover	-9979
▁diseases	-9980
▁division	-9981
▁ellipses	-9982
▁enhances	-9983
▁estimate	-9984
▁exercise	-9985
▁exposure	-9986
▁fairness	-9987
▁feasible	-9988
▁frequent	-9989
▁gateways	-9990
▁minimize	-9991
▁moisture	-9992
▁offering	-9993
▁ordinary	-9994
▁performs	-9995
▁playback	-9996
▁preimage	-9997
▁querying	-9998
▁rashmika	-9999
▁register	-10000
▁rotation	-10001
▁sentence	-10002
▁simulate	-10003
▁stations	-10004
▁straight	-10005
▁surround	-10006
▁surveyed	-10007
▁tutorial	-10008
▁unsigned	-10009
▁updating	-10010
▁validate	-10011
▁valuable	-10012
▁versions	-10013
▁visually	-10014
Industrial	-10015
Rightarrow	-10016
equivalent	-10017
ikamandana	-10018
irectional	-10019
pretrained	-10020
satellites	-10021
ustainable	-10022
▁Acknowled	-10023
▁Alignment	-10024
▁Available	-10025
▁Bandwidth	-10026
▁Batchnorm	-10027
▁Broadcast	-10028
▁Catalogue	-10029
▁Confusion	-10030
▁Dalmaijer	-10031
▁Determine	-10032
▁Exclusive	-10033
▁Extracted	-10034
▁Generates	-10035
▁Geometric	-10036
▁Hillshade	-10037
▁Iterative	-10038
▁Partition	-10039
▁Pelatihan	-10040
▁Protocols	-10041
▁Represent	-10042
▁Resources	-10043
▁Retrieved	-10044
▁SUBSTRING	-10045
▁Satellite	-10046
▁Steradian	-10047
▁Synthetic	-10048
▁Visualize	-10049
▁advantage	-10050
▁automatic	-10051
▁catalogue	-10052
▁contradic	-10053
▁converted	-10054
▁databases	-10055
▁decreased	-10056
▁depending	-10057
▁described	-10058
▁detecting	-10059
▁discussed	-10060
▁examining	-10061
▁exchanged	-10062
▁exploring	-10063
▁footprint	-10064
▁geometric	-10065
▁immediate	-10066
▁inclusive	-10067
▁institute	-10068
▁integrity	-10069
▁iterative	-10070
▁konvolusi	-10071
▁messaging	-10072
▁minimizes	-10073
▁nonlinear	-10074
▁obstacles	-10075
▁pediatric	-10076
▁portfolio	-10077
▁procedure	-10078
▁propagate	-10079
▁prototype	-10080
▁purchases	-10081
▁regarding	-10082
▁remainder	-10083
▁requested	-10084
▁resistant	-10085
▁sometimes	-10086
▁splitting	-10087
▁subarrays	-10088
▁submitted	-10089
▁technical	-10090
▁triggered	-10091
▁visualize	-10092
shivamkumar	-10093
▁((1,-1,1))	-10094
▁02-09-2025	-10095
▁192.163.10	-10096
▁Coordinate	-10097
▁Engagement	-10098
▁GRADEPOINT	-10099
▁Generating	-10100
▁INSTRUGTOR	-10101
▁Identified	-10102
▁Integrated	-10103
▁Internship	-10104
▁Literature	-10105
▁PostgreSQL	-10106
▁Projection	-10107
▁Scientific	-10108
▁Structures	-10109
▁accurately	-10110
▁autonomous	-10111
▁bottleneck	-10112
▁calculates	-10113
▁conductive	-10114
▁confirming	-10115
▁coordinate	-10116
▁definition	-10117
▁depressive	-10118
▁developing	-10119
▁equivalent	-10120
▁everything	-10121
▁exhalation	-10122
▁fabricated	-10123
▁generating	-10124
▁legitimate	-10125
▁negatively	-10126
▁outperform	-10127
▁partitions	-10128
▁penggunaan	-10129
▁population	-10130
▁preemption	-10131
▁principles	-10132
▁respective	-10133
▁structures	-10134
▁themselves	-10135
▁timestamps	-10136
▁underlying	-10137
▁widespread	-10138
Introduction	-10139
Transactions	-10140
instructions	-10141
ocratization	-10142
▁192.168.2.3	-10143
▁192.168.3.1	-10144
▁Constraints	-10145
▁Constructor	-10146
▁Fabrication	-10147
▁Gandhinagar	-10148
▁Memoization	-10149
▁Perspective	-10150
▁Recommended	-10151
▁Respondents	-10152
▁cholesterol	-10153
▁comfortable	-10154
▁connections	-10155
▁consecutive	-10156
▁considering	-10157
▁consistency	-10158
▁differently	-10159
▁frequencies	-10160
▁influencing	-10161
▁maintenance	-10162
▁obstructive	-10163
▁peningkatan	-10164
▁responsible	-10165
▁smallFigure	-10166
▁summarizing	-10167
▁10.31.174.60	-10168
▁Capabilities	-10169
▁Conditioning	-10170
▁Dependencies	-10171
▁Determinants	-10172
▁Unsupervised	-10173
▁cartographic	-10174
▁consistently	-10175
▁construction	-10176
▁enhancements	-10177
▁experimental	-10178
▁experimented	-10179
▁mathematical	-10180
▁menghasilkan	-10181
▁observations	-10182
▁reproducible	-10183
▁transforming	-10184
▁transmitting	-10185
▁192.168.10.2:	-10186
▁192.168.100.1	-10187
▁192.168.100.4	-10188
▁192.168.30.2:	-10189
▁255.255.255.2	-10190
▁Cybersecurity	-10191
▁Justification	-10192
▁Mediatization	-10193
▁Supplementary	-10194
▁collaboration	-10195
▁effectiveness	-10196
▁interpolation	-10197
▁parallelogram	-10198
▁physiological	-10199
▁192.168.1.0/24	-10200
▁192.168.100.2,	-10201
▁Hyperparameter	-10202
▁Multicommodity	-10203
▁Sociotechnical	-10204
▁Transformation	-10205
▁generalization	-10206
▁mispredictions	-10207
▁quantification	-10208
▁Rashmikamandana	-10209
▁computationally	-10210
▁functionalities	-10211
▁standardization	-10212
!=	-10213
(@	-10214
*)	-10215
+2	-10216
,|	-10217
//	-10218
0(	-10219
03	-10220
1\	-10221
2}	-10222
3+	-10223
3−	-10224
44	-10225
4}	-10226
58	-10227
71	-10228
83	-10229
93	-10230
<1	-10231
<5	-10232
Ag	-10233
BA	-10234
BC	-10235
CC	-10236
CK	-10237
Co	-10238
Cy	-10239
DD	-10240
FO	-10241
GA	-10242
HL	-10243
KA	-10244
LF	-10245
MT	-10246
Mr	-10247
OW	-10248
Og	-10249
On	-10250
PH	-10251
RF	-10252
RL	-10253
Sp	-10254
Ss	-10255
VM	-10256
]2	-10257
bd	-10258
cO	-10259
cs	-10260
cv	-10261
dr	-10262
dx	-10263
eX	-10264
fd	-10265
fo	-10266
iq	-10267
ji	-10268
jk	-10269
mi	-10270
ml	-10271
pg	-10272
rL	-10273
vi	-10274
ye	-10275
yj	-10276
}-	-10277
‘.	-10278
‘|	-10279
≡1	-10280
▁}	-10281
▁Â	-10282
▁́	-10283
▁π	-10284
▁”	-10285
▁←	-10286
⟩+	-10287
'_2	-10288
("%	-10289
())	-10290
(2)	-10291
(3:	-10292
)/(	-10293
)2=	-10294
)=1	-10295
)^2	-10296
**.	-10297
++)	-10298
+1,	-10299
+2)	-10300
+5)	-10301
-00	-10302
-18	-10303
-24	-10304
-30	-10305
.36	-10306
0/5	-10307
09:	-10308
1)|	-10309
10]	-10310
11)	-10311
116	-10312
12\	-10313
133	-10314
181	-10315
18]	-10316
2.5	-10317
24,	-10318
29.	-10319
2−2	-10320
3,;	-10321
300	-10322
308	-10323
32.	-10324
393	-10325
415	-10326
553	-10327
60,	-10328
7%)	-10329
740	-10330
8%)	-10331
875	-10332
9),	-10333
92.	-10334
94,	-10335
945	-10336
998	-10337
:-.	-10338
;=;	-10339
;?)	-10340
=-2	-10341
=1)	-10342
=1:	-10343
=1\	-10344
=30	-10345
ACH	-10346
ACT	-10347
ADC	-10348
AIM	-10349
ATA	-10350
Amp	-10351
Bre	-10352
CAB	-10353
CDR	-10354
CNN	-10355
CPU	-10356
DLE	-10357
DNS	-10358
EER	-10359
End	-10360
FIG	-10361
FPN	-10362
HAR	-10363
HAT	-10364
HIT	-10365
IRA	-10366
Ims	-10367
Ius	-10368
LAB	-10369
Man	-10370
Mon	-10371
ORE	-10372
PAN	-10373
PQR	-10374
Rec	-10375
SET	-10376
UAL	-10377
ULE	-10378
UML	-10379
UPD	-10380
Use	-10381
VED	-10382
VEM	-10383
WSL	-10384
YER	-10385
^3+	-10386
^4+	-10387
^8+	-10388
_0,	-10389
_1(	-10390
_1}	-10391
_3\	-10392
aim	-10393
aka	-10394
ams	-10395
anu	-10396
aph	-10397
arf	-10398
att	-10399
atu	-10400
awa	-10401
awn	-10402
bel	-10403
cam	-10404
cat	-10405
cpi	-10406
dem	-10407
eal	-10408
enh	-10409
eps	-10410
gen	-10411
hma	-10412
ias	-10413
ipp	-10414
ipy	-10415
joy	-10416
mes	-10417
mov	-10418
oct	-10419
osp	-10420
pap	-10421
pcd	-10422
ref	-10423
ror	-10424
see	-10425
sky	-10426
tan	-10427
tha	-10428
unt	-10429
upy	-10430
uth	-10431
via	-10432
yer	-10433
}))	-10434
},;	-10435
},{	-10436
};\	-10437
–10	-10438
–1:	-10439
−1,	-10440
▁#1	-10441
▁(,	-10442
▁(;	-10443
▁(>	-10444
▁(@	-10445
▁+1	-10446
▁+=	-10447
▁0%	-10448
▁0°	-10449
▁1'	-10450
▁2%	-10451
▁3+	-10452
▁4(	-10453
▁6)	-10454
▁83	-10455
▁8}	-10456
▁<1	-10457
▁<2	-10458
▁>>	-10459
▁AV	-10460
▁Ah	-10461
▁Aw	-10462
▁BI	-10463
▁CF	-10464
▁Ca	-10465
▁Ce	-10466
▁DD	-10467
▁DL	-10468
▁Du	-10469
▁EC	-10470
▁ER	-10471
▁Ha	-10472
▁Hu	-10473
▁IT	-10474
▁IV	-10475
▁Om	-10476
▁Ox	-10477
▁R⃗	-10478
▁TO	-10479
▁Wr	-10480
▁XX	-10481
▁da	-10482
▁gp	-10483
▁ml	-10484
▁nu	-10485
▁oA	-10486
▁po	-10487
▁qd	-10488
▁sn	-10489
▁tS	-10490
▁tb	-10491
▁te	-10492
▁tw	-10493
▁vy	-10494
▁vz	-10495
▁ya	-10496
▁·[	-10497
▁̃P	-10498
▁̃T	-10499
▁•⇒	-10500
▁−1	-10501
▁∣=	-10502
⟩=|	-10503
")).	-10504
(100	-10505
(20)	-10506
(50)	-10507
)0.4	-10508
)2+(	-10509
)}{2	-10510
-100	-10511
-19.	-10512
-300	-10513
.202	-10514
/202	-10515
0.40	-10516
0/30	-10517
1/0]	-10518
1101	-10519
127.	-10520
30-1	-10521
6869	-10522
75),	-10523
8888	-10524
=-1,	-10525
=127	-10526
ATEG	-10527
BOOK	-10528
Conn	-10529
Days	-10530
Disk	-10531
Exam	-10532
Exec	-10533
Flow	-10534
HAPT	-10535
HITE	-10536
Host	-10537
ICKS	-10538
IEEE	-10539
INET	-10540
JSON	-10541
LOAD	-10542
MACH	-10543
ORAD	-10544
Proc	-10545
Rish	-10546
SCDR	-10547
TION	-10548
TTOM	-10549
Tech	-10550
This	-10551
UMAN	-10552
VLAN	-10553
Vari	-10554
What	-10555
[0..	-10556
_1(\	-10557
_1).	-10558
_1=\	-10559
_1}=	-10560
_2}=	-10561
_{2}	-10562
aTeX	-10563
abcd	-10564
abet	-10565
adox	-10566
ahoo	-10567
alls	-10568
ally	-10569
amaj	-10570
anar	-10571
ansh	-10572
anto	-10573
antt	-10574
ards	-10575
ares	-10576
argc	-10577
asod	-10578
astE	-10579
asth	-10580
athe	-10581
aven	-10582
avud	-10583
ball	-10584
blog	-10585
bmod	-10586
clic	-10587
coNF	-10588
dhar	-10589
dout	-10590
edua	-10591
educ	-10592
eeee	-10593
efgh	-10594
elam	-10595
ensi	-10596
erms	-10597
expl	-10598
fill	-10599
full	-10600
gers	-10601
gree	-10602
hara	-10603
ijay	-10604
illa	-10605
imen	-10606
indi	-10607
inet	-10608
ints	-10609
inya	-10610
itig	-10611
ivil	-10612
jkst	-10613
kens	-10614
lier	-10615
lind	-10616
ners	-10617
next	-10618
omic	-10619
oras	-10620
oved	-10621
peak	-10622
perp	-10623
phys	-10624
poin	-10625
quer	-10626
reme	-10627
riks	-10628
runs	-10629
sert	-10630
sign	-10631
smod	-10632
solv	-10633
spec	-10634
sync	-10635
uits	-10636
ukup	-10637
umes	-10638
umin	-10639
week	-10640
whel	-10641
yang	-10642
yped	-10643
·53·	-10644
√(1+	-10645
▁(0,	-10646
▁(0=	-10647
▁(3-	-10648
▁(5)	-10649
▁(50	-10650
▁(7,	-10651
▁(70	-10652
▁0..	-10653
▁1.9	-10654
▁10)	-10655
▁10-	-10656
▁132	-10657
▁133	-10658
▁134	-10659
▁14)	-10660
▁149	-10661
▁150	-10662
▁16,	-10663
▁184	-10664
▁19,	-10665
▁2).	-10666
▁2.6	-10667
▁23.	-10668
▁230	-10669
▁240	-10670
▁25.	-10671
▁286	-10672
▁290	-10673
▁327	-10674
▁370	-10675
▁5.0	-10676
▁512	-10677
▁53)	-10678
▁6.7	-10679
▁60%	-10680
▁630	-10681
▁7.1	-10682
▁730	-10683
▁75%	-10684
▁76.	-10685
▁8.1	-10686
▁800	-10687
▁82%	-10688
▁88.	-10689
▁9.1	-10690
▁90%	-10691
▁90.	-10692
▁995	-10693
▁AWS	-10694
▁Arr	-10695
▁Bag	-10696
▁Bar	-10697
▁Bit	-10698
▁Box	-10699
▁Bur	-10700
▁CGS	-10701
▁Dep	-10702
▁EIG	-10703
▁EXA	-10704
▁Ear	-10705
▁Exc	-10706
▁Fac	-10707
▁GIT	-10708
▁Gre	-10709
▁Ish	-10710
▁JPL	-10711
▁Jay	-10712
▁Kul	-10713
▁LCD	-10714
▁LEO	-10715
▁Leg	-10716
▁Lev	-10717
▁MCU	-10718
▁MID	-10719
▁MLE	-10720
▁MPl	-10721
▁Moz	-10722
▁Ott	-10723
▁Pie	-10724
▁Pop	-10725
▁REN	-10726
▁RES	-10727
▁RSA	-10728
▁Rab	-10729
▁Raw	-10730
▁SET	-10731
▁SOD	-10732
▁SRS	-10733
▁SSA	-10734
▁Sab	-10735
▁Sep	-10736
▁Sol	-10737
▁Src	-10738
▁USB	-10739
▁VOL	-10740
▁Vay	-10741
▁WPA	-10742
▁[13	-10743
▁[4]	-10744
▁ann	-10745
▁ban	-10746
▁beh	-10747
▁bro	-10748
▁ces	-10749
▁des	-10750
▁dit	-10751
▁dkk	-10752
▁eig	-10753
▁eqz	-10754
▁flu	-10755
▁fre	-10756
▁ill	-10757
▁ion	-10758
▁kHz	-10759
▁kvm	-10760
▁lif	-10761
▁net	-10762
▁nor	-10763
▁nxt	-10764
▁odd	-10765
▁pid	-10766
▁pik	-10767
▁pin	-10768
▁raw	-10769
▁spe	-10770
▁sus	-10771
▁van	-10772
▁why	-10773
▁|10	-10774
▁~1,	-10775
(50),	-10776
)=0.2	-10777
-0.5)	-10778
00100	-10779
1,299	-10780
3.8%)	-10781
85714	-10782
Chark	-10783
Enter	-10784
FRAUD	-10785
QUENT	-10786
SProp	-10787
Shell	-10788
Stock	-10789
UTION	-10790
Unity	-10791
VISIT	-10792
_3)=\	-10793
abkan	-10794
acerb	-10795
ading	-10796
airav	-10797
andas	-10798
angan	-10799
angat	-10800
anket	-10801
anner	-10802
armed	-10803
arnya	-10804
asien	-10805
atars	-10806
atest	-10807
atish	-10808
atmap	-10809
auhan	-10810
auses	-10811
bench	-10812
block	-10813
depth	-10814
digit	-10815
email	-10816
empts	-10817
ename	-10818
entuk	-10819
eseor	-10820
eturn	-10821
fitur	-10822
icide	-10823
ictim	-10824
idual	-10825
ients	-10826
ikasi	-10827
inner	-10828
ishnu	-10829
istry	-10830
isure	-10831
ksper	-10832
lined	-10833
linux	-10834
lower	-10835
media	-10836
minim	-10837
oders	-10838
oming	-10839
opIus	-10840
opens	-10841
orbit	-10842
osite	-10843
oster	-10844
oting	-10845
papar	-10846
parts	-10847
patel	-10848
queue	-10849
ramer	-10850
ratch	-10851
reduc	-10852
reply	-10853
reset	-10854
riers	-10855
rolog	-10856
saved	-10857
sleep	-10858
tible	-10859
ticle	-10860
ubble	-10861
ujian	-10862
umlah	-10863
using	-10864
utual	-10865
vices	-10866
voxel	-10867
zores	-10868
·59·9	-10869
▁(1-2	-10870
▁(14,	-10871
▁(592	-10872
▁0.07	-10873
▁0.75	-10874
▁0.97	-10875
▁0.98	-10876
▁101.	-10877
▁121,	-10878
▁1⁄2(	-10879
▁20%/	-10880
▁221)	-10881
▁2314	-10882
▁2970	-10883
▁30%.	-10884
▁3127	-10885
▁6.25	-10886
▁6.67	-10887
▁6000	-10888
▁7424	-10889
▁<100	-10890
▁=((0	-10891
▁Arts	-10892
▁Bias	-10893
▁CERT	-10894
▁Coil	-10895
▁Cred	-10896
▁DAGs	-10897
▁DHcP	-10898
▁Desc	-10899
▁Disk	-10900
▁Emer	-10901
▁Epic	-10902
▁Feed	-10903
▁Fing	-10904
▁Four	-10905
▁Free	-10906
▁Grid	-10907
▁HAND	-10908
▁INto	-10909
▁Ioss	-10910
▁LANs	-10911
▁Leap	-10912
▁Lung	-10913
▁Mind	-10914
▁Near	-10915
▁Neck	-10916
▁Opin	-10917
▁OsPF	-10918
▁Ospr	-10919
▁PEER	-10920
▁PIPO	-10921
▁Pick	-10922
▁Plan	-10923
▁Pred	-10924
▁Prob	-10925
▁RIGH	-10926
▁Rahe	-10927
▁ReLU	-10928
▁Riya	-10929
▁Root	-10930
▁SDLC	-10931
▁Seed	-10932
▁Sets	-10933
▁Shah	-10934
▁Sugg	-10935
▁Swap	-10936
▁Vite	-10937
▁Wait	-10938
▁Wald	-10939
▁Will	-10940
▁Yang	-10941
▁[0.0	-10942
▁agar	-10943
▁anim	-10944
▁asod	-10945
▁auth	-10946
▁bash	-10947
▁book	-10948
▁bugs	-10949
▁bull	-10950
▁cars	-10951
▁ceil	-10952
▁cogn	-10953
▁copy	-10954
▁cube	-10955
▁cuts	-10956
▁deal	-10957
▁dele	-10958
▁dini	-10959
▁disk	-10960
▁dual	-10961
▁eggs	-10962
▁fall	-10963
▁forb	-10964
▁game	-10965
▁gave	-10966
▁insp	-10967
▁kbps	-10968
▁kelu	-10969
▁lack	-10970
▁mana	-10971
▁meat	-10972
▁ment	-10973
▁mere	-10974
▁nahi	-10975
▁news	-10976
▁pent	-10977
▁rata	-10978
▁repo	-10979
▁sama	-10980
▁sand	-10981
▁seek	-10982
▁sell	-10983
▁shel	-10984
▁sock	-10985
▁stay	-10986
▁team	-10987
▁togg	-10988
▁void	-10989
▁wEEK	-10990
▁weak	-10991
▁wget	-10992
▁wide	-10993
),(1-\	-10994
......	-10995
0/0.40	-10996
1,2},{	-10997
=-1,;\	-10998
ATIONS	-10999
Bandit	-11000
HAPTER	-11001
ICross	-11002
Intern	-11003
Length	-11004
Neural	-11005
Object	-11006
Online	-11007
STREAM	-11008
Sample	-11009
Sensor	-11010
Simple	-11011
Stores	-11012
Switch	-11013
VEMBER	-11014
angers	-11015
anging	-11016
aphore	-11017
append	-11018
arfare	-11019
arknet	-11020
asthan	-11021
ategic	-11022
avudya	-11023
eature	-11024
eloper	-11025
enshot	-11026
ervice	-11027
estyle	-11028
fastro	-11029
frames	-11030
ifests	-11031
igious	-11032
inetic	-11033
ionals	-11034
istira	-11035
itaire	-11036
jkstra	-11037
keeper	-11038
minute	-11039
misses	-11040
models	-11041
ortest	-11042
othing	-11043
ourney	-11044
plying	-11045
posure	-11046
salary	-11047
sectio	-11048
stdlib	-11049
strate	-11050
timuli	-11051
tuning	-11052
turing	-11053
valued	-11054
vasive	-11055
verify	-11056
vision	-11057
{,}000	-11058
·53·49	-11059
▁(1,1)	-11060
▁(2020	-11061
▁(4.3)	-11062
▁0.01\	-11063
▁0.030	-11064
▁0.042	-11065
▁0.800	-11066
▁0.875	-11067
▁01=1,	-11068
▁10=1,	-11069
▁2001]	-11070
▁2016.	-11071
▁2018.	-11072
▁2023.	-11073
▁2025.	-11074
▁2409:	-11075
▁3.3.1	-11076
▁36.8%	-11077
▁40,50	-11078
▁87.3%	-11079
▁ABcos	-11080
▁Agree	-11081
▁Azure	-11082
▁BLACK	-11083
▁Break	-11084
▁Built	-11085
▁COviD	-11086
▁Costs	-11087
▁Cycle	-11088
▁Dalam	-11089
▁Divid	-11090
▁Drive	-11091
▁Event	-11092
▁False	-11093
▁Fault	-11094
▁Fixed	-11095
▁Forms	-11096
▁Gantt	-11097
▁HUMAN	-11098
▁Harsh	-11099
▁ICAIM	-11100
▁Inner	-11101
▁LAYER	-11102
▁Label	-11103
▁Lumin	-11104
▁Minor	-11105
▁Mixup	-11106
▁Mohit	-11107
▁NORAD	-11108
▁Navig	-11109
▁Noise	-11110
▁North	-11111
▁OAuth	-11112
▁Orbit	-11113
▁Outer	-11114
▁PIHPS	-11115
▁Paths	-11116
▁Place	-11117
▁Polar	-11118
▁Psych	-11119
▁Radar	-11120
▁Saved	-11121
▁Schem	-11122
▁Seven	-11123
▁Sever	-11124
▁Simil	-11125
▁Sleep	-11126
▁Tabel	-11127
▁Terms	-11128
▁Trace	-11129
▁Track	-11130
▁Treat	-11131
▁UNITS	-11132
▁Urban	-11133
▁Usage	-11134
▁Users	-11135
▁Vijay	-11136
▁Width	-11137
▁Would	-11138
▁Wuhan	-11139
▁Yahoo	-11140
▁[1/0]	-11141
▁akhir	-11142
▁ankit	-11143
▁cardi	-11144
▁cells	-11145
▁cukup	-11146
▁deriv	-11147
▁draft	-11148
▁drops	-11149
▁enter	-11150
▁entry	-11151
▁fiber	-11152
▁flags	-11153
▁flips	-11154
▁floor	-11155
▁going	-11156
▁hanya	-11157
▁hyper	-11158
▁ideas	-11159
▁inequ	-11160
▁inner	-11161
▁kedua	-11162
▁keyed	-11163
▁lever	-11164
▁looks	-11165
▁merge	-11166
▁meter	-11167
▁minor	-11168
▁mixup	-11169
▁modes	-11170
▁month	-11171
▁parse	-11172
▁penet	-11173
▁plays	-11174
▁radar	-11175
▁radio	-11176
▁relay	-11177
▁samaj	-11178
▁scipy	-11179
▁scope	-11180
▁seeds	-11181
▁showc	-11182
▁snipp	-11183
▁stage	-11184
▁suatu	-11185
▁tLINE	-11186
▁taxes	-11187
▁touch	-11188
▁trace	-11189
▁truly	-11190
▁unity	-11191
▁unrel	-11192
▁vital	-11193
▁warna	-11194
▁watch	-11195
▁width	-11196
▁wrong	-11197
▁zones	-11198
(10,2),	-11199
000,000	-11200
4656667	-11201
ATEGORY	-11202
COURSES	-11203
Charkha	-11204
ICKSORT	-11205
IZATION	-11206
Joining	-11207
MACHINE	-11208
Plateau	-11209
Section	-11210
Sensors	-11211
Summary	-11212
TIMSCDR	-11213
Through	-11214
Virtual	-11215
_{2}^{(	-11216
address	-11217
already	-11218
ashanan	-11219
atchbox	-11220
atility	-11221
bmatrix	-11222
dataset	-11223
decimal	-11224
defined	-11225
dhartha	-11226
diagram	-11227
fopenmp	-11228
ilogram	-11229
indaian	-11230
ishable	-11231
linders	-11232
loading	-11233
matches	-11234
maximum	-11235
mersive	-11236
orative	-11237
renamed	-11238
results	-11239
rewards	-11240
schools	-11241
sendall	-11242
through	-11243
tically	-11244
utative	-11245
valence	-11246
written	-11247
ydrolog	-11248
▁((1,1,	-11249
▁(2007)	-11250
▁71,299	-11251
▁9973);	-11252
▁Arrays	-11253
▁Associ	-11254
▁Blockj	-11255
▁Blocks	-11256
▁Bottom	-11257
▁Bridge	-11258
▁Collab	-11259
▁Compil	-11260
▁CompuT	-11261
▁Cramer	-11262
▁Curves	-11263
▁Cutmix	-11264
▁Daniel	-11265
▁Decomp	-11266
▁Handle	-11267
▁Insert	-11268
▁Iracer	-11269
▁Jayant	-11270
▁Khalaf	-11271
▁Launch	-11272
▁Longer	-11273
▁MENACE	-11274
▁MIDDLE	-11275
▁MODULE	-11276
▁Matlab	-11277
▁Mental	-11278
▁Minimm	-11279
▁Motion	-11280
▁NVIDIA	-11281
▁Nature	-11282
▁Nested	-11283
▁Ottawa	-11284
▁Papers	-11285
▁Plugin	-11286
▁Portal	-11287
▁Powers	-11288
▁Pratik	-11289
▁Presti	-11290
▁Profit	-11291
▁Protot	-11292
▁Rabbit	-11293
▁Render	-11294
▁Routes	-11295
▁SOLVED	-11296
▁Sanket	-11297
▁Selain	-11298
▁Series	-11299
▁Speech	-11300
▁Submit	-11301
▁Tablet	-11302
▁Target	-11303
▁Uneven	-11304
▁advers	-11305
▁aligns	-11306
▁analys	-11307
▁assess	-11308
▁asthma	-11309
▁begins	-11310
▁broken	-11311
▁career	-11312
▁clause	-11313
▁compil	-11314
▁copper	-11315
▁cosine	-11316
▁cursor	-11317
▁dating	-11318
▁debris	-11319
▁define	-11320
▁degree	-11321
▁demand	-11322
▁dipole	-11323
▁distur	-11324
▁encode	-11325
▁encryp	-11326
▁engage	-11327
▁equals	-11328
▁exists	-11329
▁extens	-11330
▁gambar	-11331
▁intadd	-11332
▁layout	-11333
▁losses	-11334
▁meters	-11335
▁minima	-11336
▁mostly	-11337
▁narrow	-11338
▁pasien	-11339
▁powers	-11340
▁profil	-11341
▁prompt	-11342
▁puzzle	-11343
▁queens	-11344
▁radian	-11345
▁rarely	-11346
▁redund	-11347
▁refers	-11348
▁regime	-11349
▁remote	-11350
▁roster	-11351
▁safety	-11352
▁sangat	-11353
▁sector	-11354
▁serves	-11355
▁seseor	-11356
▁severe	-11357
▁simply	-11358
▁stalls	-11359
▁stated	-11360
▁strain	-11361
▁terdir	-11362
▁tomato	-11363
▁transl	-11364
▁unless	-11365
▁unsolv	-11366
▁versus	-11367
▁webcam	-11368
▁yellow	-11369
▁~1,000	-11370
-1,1,-1)	-11371
80::201:	-11372
Finalize	-11373
Research	-11374
Untitled	-11375
Variable	-11376
abcdefgh	-11377
acerbate	-11378
aracters	-11379
arenakan	-11380
commerce	-11381
emantics	-11382
enshtein	-11383
ferences	-11384
finished	-11385
iafastro	-11386
ivalents	-11387
nslookup	-11388
ognition	-11389
ologists	-11390
personal	-11391
response	-11392
riptions	-11393
sampling	-11394
udistira	-11395
ustrates	-11396
versible	-11397
whelming	-11398
▁(10,000	-11399
▁10,000+	-11400
▁1100100	-11401
▁2000.00	-11402
▁2023523	-11403
▁6000.00	-11404
▁8.8.8.8	-11405
▁Achieve	-11406
▁Another	-11407
▁Bhairav	-11408
▁Bitwise	-11409
▁CAUsers	-11410
▁CHAPTER	-11411
▁Catalog	-11412
▁Chauhan	-11413
▁Cleaned	-11414
▁DECIMAL	-11415
▁EXAMPLE	-11416
▁Edition	-11417
▁Element	-11418
▁Ensures	-11419
▁Facilit	-11420
▁Factory	-11421
▁Filling	-11422
▁Focuses	-11423
▁Further	-11424
▁Handson	-11425
▁Hashing	-11426
▁Hebbian	-11427
▁Highest	-11428
▁Lavudya	-11429
▁Logical	-11430
▁Matches	-11431
▁Meaning	-11432
▁Mozilla	-11433
▁Objects	-11434
▁Observe	-11435
▁Overlap	-11436
▁Package	-11437
▁Paradox	-11438
▁Paralle	-11439
▁Pumping	-11440
▁RMSProp	-11441
▁Related	-11442
▁Runtime	-11443
▁SUMMARY	-11444
▁Scholar	-11445
▁Session	-11446
▁Sigmoid	-11447
▁Sorting	-11448
▁Sources	-11449
▁StarUML	-11450
▁Substit	-11451
▁Tensors	-11452
▁Tracing	-11453
▁Tumhara	-11454
▁Voltage	-11455
▁Without	-11456
▁adapter	-11457
▁anticip	-11458
▁appears	-11459
▁arrives	-11460
▁astropy	-11461
▁attacks	-11462
▁attract	-11463
▁battery	-11464
▁billion	-11465
▁blocked	-11466
▁capable	-11467
▁catalog	-11468
▁century	-11469
▁closing	-11470
▁coastal	-11471
▁college	-11472
▁comprom	-11473
▁concise	-11474
▁cybercr	-11475
▁decrypt	-11476
▁density	-11477
▁descent	-11478
▁diverse	-11479
▁drivers	-11480
▁ellipse	-11481
▁ensured	-11482
▁erosion	-11483
▁examine	-11484
▁finding	-11485
▁focuses	-11486
▁grammar	-11487
▁happens	-11488
▁harmful	-11489
▁headset	-11490
▁helpful	-11491
▁indices	-11492
▁ineffic	-11493
▁joining	-11494
▁largest	-11495
▁leisure	-11496
▁listing	-11497
▁logging	-11498
▁looking	-11499
▁massive	-11500
▁matters	-11501
▁observe	-11502
▁onboard	-11503
▁optical	-11504
▁orbital	-11505
▁overlap	-11506
▁package	-11507
▁parking	-11508
▁penting	-11509
▁pooling	-11510
▁private	-11511
▁quantif	-11512
▁reaches	-11513
▁reasons	-11514
▁resting	-11515
▁restock	-11516
▁rounded	-11517
▁satisfy	-11518
▁semakin	-11519
▁shuffle	-11520
▁specify	-11521
▁squares	-11522
▁syscall	-11523
▁trellis	-11524
▁unclass	-11525
▁updated	-11526
▁warning	-11527
▁whereas	-11528
▁younger	-11529
Algorithm	-11530
agnitudes	-11531
ancements	-11532
buildroot	-11533
container	-11534
digitated	-11535
effective	-11536
geometric	-11537
igibility	-11538
imination	-11539
ingestion	-11540
mentation	-11541
stitution	-11542
▁20235100	-11543
▁20235232	-11544
▁5000.002	-11545
▁Academic	-11546
▁Accurate	-11547
▁Argument	-11548
▁Balanced	-11549
▁Capacity	-11550
▁Changing	-11551
▁Checking	-11552
▁Checkout	-11553
▁Coverage	-11554
▁Cultural	-11555
▁Demonstr	-11556
▁Dijkstra	-11557
▁Directed	-11558
▁Disagree	-11559
▁District	-11560
▁Duration	-11561
▁Enhances	-11562
▁Entities	-11563
▁Findings	-11564
▁Frontend	-11565
▁HANDBOOK	-11566
▁Identity	-11567
▁Iearning	-11568
▁Includes	-11569
▁Incorpor	-11570
▁Interest	-11571
▁Kulkarni	-11572
▁Luminous	-11573
▁Medicine	-11574
▁Moderate	-11575
▁NOVEMBER	-11576
▁Nadkarni	-11577
▁Nasional	-11578
▁NeTworks	-11579
▁Operator	-11580
▁Packetse	-11581
▁Previous	-11582
▁Programs	-11583
▁Relative	-11584
▁Response	-11585
▁Rigorous	-11586
▁Scalable	-11587
▁Services	-11588
▁Shopping	-11589
▁Snapchat	-11590
▁Switches	-11591
▁Tailwind	-11592
▁Teleport	-11593
▁Timeline	-11594
▁Tracking	-11595
▁Weighted	-11596
▁adaptive	-11597
▁addicted	-11598
▁agricult	-11599
▁analyzed	-11600
▁attempts	-11601
▁backpoin	-11602
▁backward	-11603
▁bicycles	-11604
▁checksum	-11605
▁circuits	-11606
▁combines	-11607
▁concentr	-11608
▁concrete	-11609
▁confirms	-11610
▁conflict	-11611
▁datagram	-11612
▁deleting	-11613
▁discount	-11614
▁discrete	-11615
▁disorder	-11616
▁entering	-11617
▁entities	-11618
▁examines	-11619
▁globally	-11620
▁horizons	-11621
▁hypothes	-11622
▁infinite	-11623
▁informed	-11624
▁littoral	-11625
▁managing	-11626
▁matching	-11627
▁numerous	-11628
▁optional	-11629
▁ordering	-11630
▁overflow	-11631
▁patience	-11632
▁pictured	-11633
▁predicts	-11634
▁preserve	-11635
▁prioriti	-11636
▁proposal	-11637
▁randomly	-11638
▁removing	-11639
▁returned	-11640
▁robotics	-11641
▁sehingga	-11642
▁shifting	-11643
▁skeleton	-11644
▁skipping	-11645
▁slightly	-11646
▁socially	-11647
▁superior	-11648
▁teaching	-11649
▁terdapat	-11650
▁terpapar	-11651
▁transfer	-11652
▁validity	-11653
▁vehicles	-11654
▁vertical	-11655
▁waveform	-11656
▁weighted	-11657
92.168.1.1	-11658
GRADEPOINT	-11659
Horizontal	-11660
Literature	-11661
acceptable	-11662
ailability	-11663
apsulation	-11664
difference	-11665
ertainment	-11666
stationary	-11667
▁202351173	-11668
▁Amplifier	-11669
▁Annealing	-11670
▁Briefcase	-11671
▁Buildroot	-11672
▁Classical	-11673
▁Cofactors	-11674
▁Composite	-11675
▁Converted	-11676
▁Documents	-11677
▁Effective	-11678
▁Electrode	-11679
▁Elevation	-11680
▁Establish	-11681
▁Formulate	-11682
▁GraphConv	-11683
▁Intensity	-11684
▁Mechanics	-11685
▁Mechanism	-11686
▁Pneumonia	-11687
▁Potential	-11688
▁QUICKSORT	-11689
▁Rajasthan	-11690
▁Recursive	-11691
▁Reduction	-11692
▁Signature	-11693
▁Strategic	-11694
▁Streaming	-11695
▁Substance	-11696
▁Technique	-11697
▁Treatment	-11698
▁Usability	-11699
▁administr	-11700
▁amplifier	-11701
▁annotated	-11702
▁appending	-11703
▁beginning	-11704
▁bertujuan	-11705
▁briefcase	-11706
▁capturing	-11707
▁completed	-11708
▁concerned	-11709
▁consensus	-11710
▁constants	-11711
▁correlate	-11712
▁corrupted	-11713
▁covariate	-11714
▁deviation	-11715
▁discusses	-11716
▁displayed	-11717
▁duplicate	-11718
▁enhancing	-11719
▁estimates	-11720
▁excessive	-11721
▁forbidden	-11722
▁gratitude	-11723
▁ingestion	-11724
▁internals	-11725
▁landscape	-11726
▁lifestyle	-11727
▁maneuvers	-11728
▁manifests	-11729
▁mechanics	-11730
▁meningkat	-11731
▁menyerang	-11732
▁monitored	-11733
▁neighbors	-11734
▁otherwise	-11735
▁principal	-11736
▁quadratic	-11737
▁realistic	-11738
▁receiving	-11739
▁redefines	-11740
▁responded	-11741
▁satisfied	-11742
▁scheduled	-11743
▁sediments	-11744
▁selecting	-11745
▁sensitive	-11746
▁seseorang	-11747
▁similarly	-11748
▁smoothing	-11749
▁solitaire	-11750
▁suffering	-11751
▁suggested	-11752
▁summarize	-11753
▁supported	-11754
▁terserang	-11755
▁theICross	-11756
▁therefore	-11757
▁thousands	-11758
▁threading	-11759
▁traveling	-11760
▁traversal	-11761
...........	-11762
46566676869	-11763
Autoencoder	-11764
_{12}(0,0),	-11765
chestration	-11766
erequisites	-11767
operability	-11768
predictable	-11769
propagation	-11770
ronological	-11771
zoresistive	-11772
▁Attendance	-11773
▁Autonomous	-11774
▁Continuous	-11775
▁Dependency	-11776
▁Dimensions	-11777
▁Diplomatic	-11778
▁Electrical	-11779
▁Experience	-11780
▁Government	-11781
▁Interrupts	-11782
▁Ioneliness	-11783
▁Ishashanan	-11784
▁Mohityaday	-11785
▁Navigation	-11786
▁Plagiarism	-11787
▁Prathamesh	-11788
▁Siddhartha	-11789
▁Simulation	-11790
▁Supervised	-11791
▁Techniques	-11792
▁acceptance	-11793
▁addressing	-11794
▁adjustment	-11795
▁assistance	-11796
▁automating	-11797
▁blockchain	-11798
▁classified	-11799
▁commenting	-11800
▁contribute	-11801
▁dashboards	-11802
▁developers	-11803
▁electronic	-11804
▁exacerbate	-11805
▁fractional	-11806
▁guarantees	-11807
▁harassment	-11808
▁hysteresis	-11809
▁inequality	-11810
▁innovation	-11811
▁instancing	-11812
▁interrupts	-11813
▁investment	-11814
▁maximizing	-11815
▁measurable	-11816
▁pemindaian	-11817
▁perception	-11818
▁positively	-11819
▁preprocess	-11820
▁pretrained	-11821
▁pseudocode	-11822
▁randomized	-11823
▁scheduling	-11824
▁screenshot	-11825
▁sebelumnya	-11826
▁selections	-11827
▁standalone	-11828
▁systematic	-11829
▁systeminfo	-11830
▁transforms	-11831
▁undirected	-11832
▁unreliable	-11833
▁(202351173)	-11834
▁192.168.1.0	-11835
▁192.168.1.2	-11836
▁192.168.10.	-11837
▁192.168.2.1	-11838
▁192.168.3.0	-11839
▁4000.002019	-11840
▁Calculation	-11841
▁Comparative	-11842
▁Conclusions	-11843
▁Considering	-11844
▁Coordinates	-11845
▁Determinant	-11846
▁Environment	-11847
▁Independent	-11848
▁Investigate	-11849
▁Levenshtein	-11850
▁Lightweight	-11851
▁Predictions	-11852
▁Progressive	-11853
▁Transmitted	-11854
▁assignments	-11855
▁association	-11856
▁categorical	-11857
▁centralized	-11858
▁checkpoints	-11859
▁composition	-11860
▁conditional	-11861
▁conditioned	-11862
▁constrained	-11863
▁contributes	-11864
▁degradation	-11865
▁demonstrate	-11866
▁discussions	-11867
▁flexibility	-11868
▁highlighted	-11869
▁illustrates	-11870
▁inclination	-11871
▁initialized	-11872
▁instruction	-11873
▁integrating	-11874
▁interacting	-11875
▁interesting	-11876
▁mathematics	-11877
▁membutuhkan	-11878
▁menyebabkan	-11879
▁orientation	-11880
▁researchers	-11881
▁theoretical	-11882
International	-11883
▁192.168.20.1	-11884
▁Achievements	-11885
▁Contribution	-11886
▁Environments	-11887
▁Hanufacturer	-11888
▁Hierarchical	-11889
▁Localization	-11890
▁Manufacturer	-11891
▁Significance	-11892
▁Substituting	-11893
▁TRANSACTIONS	-11894
▁binaryBandit	-11895
▁combinations	-11896
▁complexities	-11897
▁concurrently	-11898
▁conservation	-11899
▁contribution	-11900
▁conventional	-11901
▁demonstrated	-11902
▁improvements	-11903
▁instructions	-11904
▁interpreting	-11905
▁manipulation	-11906
▁overwhelming	-11907
▁permeability	-11908
▁policymakers	-11909
▁presentation	-11910
▁preservation	-11911
▁registration	-11912
▁representing	-11913
▁standardized	-11914
▁unclassified	-11915
▁verification	-11916
▁192.168.10.11	-11917
▁192.168.100.2	-11918
▁192.168.100.6	-11919
▁Computational	-11920
▁Differentiate	-11921
▁Factorization	-11922
▁Opportunities	-11923
▁SemanticKITTI	-11924
▁Significantly	-11925
▁comprehension	-11926
▁convolutional	-11927
▁demonstrating	-11928
▁entertainment	-11929
▁internalizing	-11930
▁international	-11931
▁misprediction	-11932
▁possibilities	-11933
▁reinforcement	-11934
▁192.168.3.0/24	-11935
▁Acknowledgment	-11936
▁Considerations	-11937
▁Sustainability	-11938
▁categorization	-11939
▁systematically	-11940
▁255.255.255.252	-11941
▁CriticalSection	-11942
▁Differentiating	-11943
▁Microcontroller	-11944
▁distinguishable	-11945
▁implementations	-11946
▁maintainability	-11947
▁multiplications	-11948
▁reproducibility	-11949
▁synchronization	-11950
▁transformations	-11951
!!	-11952
$1	-11953
'+	-11954
'0	-11955
(+	-11956
(7	-11957
([	-11958
)'	-11959
)<	-11960
*]	-11961
+)	-11962
+;	-11963
,!	-11964
,-	-11965
,0	-11966
,4	-11967
-7	-11968
/|	-11969
/‘	-11970
0+	-11971
04	-11972
1=	-11973
3→	-11974
57	-11975
61	-11976
62	-11977
72	-11978
8(	-11979
81	-11980
:9	-11981
::	-11982
=-	-11983
=7	-11984
=9	-11985
=∘	-11986
?,	-11987
As	-11988
BF	-11989
Bo	-11990
CL	-11991
CM	-11992
DB	-11993
El	-11994
FQ	-11995
GG	-11996
GR	-11997
GY	-11998
HP	-11999
IB	-12000
IE	-12001
IO	-12002
KU	-12003
LM	-12004
Mo	-12005
OG	-12006
PM	-12007
PX	-12008
QQ	-12009
Rs	-12010
SH	-12011
SM	-12012
Sm	-12013
TM	-12014
UG	-12015
US	-12016
XT	-12017
Ys	-12018
[4	-12019
[5	-12020
[]	-12021
\=	-12022
]\	-12023
__	-12024
ba	-12025
fm	-12026
ht	-12027
lD	-12028
mU	-12029
mt	-12030
pF	-12031
pq	-12032
px	-12033
qr	-12034
rh	-12035
ru	-12036
uf	-12037
xc	-12038
xi	-12039
{7	-12040
}_	-12041
·3	-12042
√(	-12043
∣=	-12044
≡5	-12045
▁λ	-12046
▁τ	-12047
▁⇒	-12048
▁≥	-12049
▁⊗	-12050
"))	-12051
%),	-12052
'_1	-12053
'_3	-12054
(10	-12055
(1\	-12056
),.	-12057
),\	-12058
).)	-12059
)/4	-12060
)=(	-12061
)=6	-12062
)\)	-12063
)}(	-12064
)})	-12065
)}{	-12066
**,	-12067
-))	-12068
-0:	-12069
-17	-12070
-50	-12071
.34	-12072
.5%	-12073
0)+	-12074
0/4	-12075
010	-12076
02,	-12077
09/	-12078
0].	-12079
1)*	-12080
1/0	-12081
1/√	-12082
112	-12083
122	-12084
141	-12085
149	-12086
16}	-12087
17]	-12088
19]	-12089
1],	-12090
1];	-12091
1},	-12092
2)^	-12093
2,3	-12094
2.1	-12095
2.6	-12096
20)	-12097
224	-12098
248	-12099
'_0	-12100
256	-12101
26)	-12102
28]	-12103
3).	-12104
3.1	-12105
305	-12106
32)	-12107
36,	-12108
360	-12109
363	-12110
367	-12111
374	-12112
3:2	-12113
4))	-12114
40.	-12115
400	-12116
45)	-12117
460	-12118
489	-12119
5%8	-12120
50,	-12121
505	-12122
512	-12123
60°	-12124
645	-12125
68.	-12126
7)\	-12127
724	-12128
733	-12129
757	-12130
77/	-12131
8):	-12132
8.6	-12133
828	-12134
86_	-12135
9.9	-12136
90)	-12137
905	-12138
97:	-12139
990	-12140
:))	-12141
:80	-12142
<<"	-12143
=0:	-12144
=1}	-12145
=20	-12146
=2:	-12147
=3)	-12148
=34	-12149
=46	-12150
={(	-12151
?->	-12152
ACS	-12153
AES	-12154
AMO	-12155
Adv	-12156
BAL	-12157
BDP	-12158
Bag	-12159
Bas	-12160
CDN	-12161
CLI	-12162
Cor	-12163
Cut	-12164
DEL	-12165
DES	-12166
DOO	-12167
Dim	-12168
EMU	-12169
ERI	-12170
ESP	-12171
Exp	-12172
GLO	-12173
HAL	-12174
IDO	-12175
INA	-12176
ISK	-12177
ITI	-12178
KHL	-12179
LAM	-12180
LED	-12181
LOW	-12182
Low	-12183
MIS	-12184
Mul	-12185
NIL	-12186
NTH	-12187
OFT	-12188
Ori	-12189
POS	-12190
PSK	-12191
RIS	-12192
RNN	-12193
RTT	-12194
Rem	-12195
SIG	-12196
Sin	-12197
Src	-12198
TAL	-12199
CLU	-12200
TIP	-12201
TSP	-12202
USE	-12203
VIK	-12204
Vol	-12205
WAR	-12206
WIT	-12207
WWW	-12208
^2)	-12209
^2+	-12210
^{\	-12211
_1+	-12212
_2+	-12213
_3+	-12214
_4)	-12215
abi	-12216
ahd	-12217
ahn	-12218
aja	-12219
alc	-12220
anf	-12221
app	-12222
arc	-12223
asa	-12224
aye	-12225
buf	-12226
css	-12227
das	-12228
dep	-12229
dom	-12230
eni	-12231
esh	-12232
etc	-12233
eti	-12234
eve	-12235
fac	-12236
fav	-12237
flo	-12238
gal	-12239
hex	-12240
iat	-12241
ibp	-12242
idi	-12243
ief	-12244
igo	-12245
ino	-12246
ips	-12247
jbc	-12248
leg	-12249
let	-12250
lie	-12251
lim	-12252
lon	-12253
lor	-12254
mat	-12255
mic	-12256
mpi	-12257
nam	-12258
nin	-12259
nop	-12260
nxt	-12261
oll	-12262
omn	-12263
oni	-12264
ony	-12265
oon	-12266
oro	-12267
orz	-12268
osa	-12269
owN	-12270
pan	-12271
pid	-12272
pin	-12273
pon	-12274
pur	-12275
rah	-12276
rin	-12277
ste	-12278
tsp	-12279
uat	-12280
uli	-12281
ulk	-12282
uny	-12283
upa	-12284
uro	-12285
usp	-12286
utm	-12287
vID	-12288
vis	-12289
web	-12290
weu	-12291
wik	-12292
});	-12293
}=+	-12294
·25	-12295
·67	-12296
·95	-12297
–17	-12298
≡50	-12299
=3'	-12300
DpC	-12301
OVM	-12302
hui	-12303
xEF	-12304
xyz	-12305
▁&\	-12306
▁(!	-12307
▁(*	-12308
▁(<	-12309
▁(|	-12310
▁++	-12311
▁+2	-12312
▁0)	-12313
▁0*	-12314
▁08	-12315
▁1%	-12316
▁1\	-12317
▁1|	-12318
▁1−	-12319
▁1√	-12320
▁2]	-12321
▁3%	-12322
▁4%	-12323
▁4]	-12324
▁5;	-12325
▁5\	-12326
▁7·	-12327
▁8(	-12328
▁84	-12329
▁95	-12330
▁96	-12331
▁99	-12332
▁=|	-12333
▁AP	-12334
▁Ai	-12335
▁BA	-12336
▁BB	-12337
▁BN	-12338
▁BP	-12339
▁CH	-12340
▁CL	-12341
▁Cj	-12342
▁FD	-12343
▁FF	-12344
▁GB	-12345
▁HE	-12346
▁Hn	-12347
▁IK	-12348
▁Ja	-12349
▁Js	-12350
▁Lu	-12351
▁Mc	-12352
▁NE	-12353
▁NI	-12354
▁Nm	-12355
▁PT	-12356
▁Pi	-12357
▁RF	-12358
▁RL	-12359
▁SD	-12360
▁SK	-12361
▁SS	-12362
▁TL	-12363
▁VI	-12364
▁Vl	-12365
▁XU	-12366
▁Ye	-12367
▁ZK	-12368
▁[0	-12369
▁[]	-12370
▁aa	-12371
▁ep	-12372
▁gl	-12373
▁ic	-12374
▁ja	-12375
▁kh	-12376
▁mk	-12377
▁oS	-12378
▁ot	-12379
▁pd	-12380
▁pn	-12381
▁rm	-12382
▁rn	-12383
▁sw	-12384
▁tt	-12385
▁xz	-12386
▁ys	-12387
▁{\	-12388
▁~1	-12389
▁−2	-12390
▁−4	-12391
⟩,|	-12392
(0.2	-12393
(1),	-12394
(2:0	-12395
)).)	-12396
)0.5	-12397
----	-12398
-018	-12399
RIX	-12400
Ukr	-12401
-128	-12402
-600	-12403
...+	-12404
.154	-12405
.188	-12406
.20.	-12407
.201	-12408
/10)	-12409
0.0/	-12410
0.01	-12411
0.06	-12412
0.12	-12413
0.5%	-12414
0/20	-12415
000)	-12416
001,	-12417
1,32	-12418
1/2)	-12419
12),	-12420
1270	-12421
15),	-12422
1517	-12423
162,	-12424
2,3,	-12425
2/(2	-12426
30),	-12427
32})	-12428
3967	-12429
4.7%	-12430
5714	-12431
60),	-12432
6501	-12433
714)	-12434
:10,	-12435
=0)=	-12436
=0.1	-12437
=10,	-12438
ALIN	-12439
ANCE	-12440
ARQL	-12441
ATAR	-12442
ATOR	-12443
Adam	-12444
Bank	-12445
CDLP	-12446
Chat	-12447
Clim	-12448
ClrP	-12449
DISE	-12450
DIUM	-12451
Date	-12452
Deep	-12453
Even	-12454
HAYU	-12455
Have	-12456
Init	-12457
LECT	-12458
LETE	-12459
LIME	-12460
LOAT	-12461
Lock	-12462
Long	-12463
MSDA	-12464
Meta	-12465
NNER	-12466
Norm	-12467
Note	-12468
NsOR	-12469
ORKS	-12470
Obst	-12471
Over	-12472
Pack	-12473
Pass	-12474
RAIN	-12475
Requ	-12476
Safe	-12477
Size	-12478
Sock	-12479
THEN	-12480
TTPS	-12481
TURK	-12482
Them	-12483
Tree	-12484
Twin	-12485
UPLI	-12486
VETS	-12487
[1])	-12488
_1+\	-12489
_2)(	-12490
_2)\	-12491
_2,\	-12492
_2})	-12493
_3})	-12494
acci	-12495
adow	-12496
afiz	-12497
aine	-12498
anas	-12499
xBA	-12500
(3:0	-12501
INFO	-12502
anco	-12503
angi	-12504
anic	-12505
arga	-12506
arks	-12507
arma	-12508
asaS	-12509
asal	-12510
away	-12511
aysh	-12512
body	-12513
bots	-12514
buat	-12515
coil	-12516
conf	-12517
ctiv	-12518
date	-12519
edit	-12520
elas	-12521
elur	-12522
emma	-12523
enew	-12524
engg	-12525
enue	-12526
eply	-12527
eric	-12528
ermi	-12529
eter	-12530
etre	-12531
fail	-12532
fers	-12533
ffee	-12534
fork	-12535
greg	-12536
hale	-12537
hing	-12538
hips	-12539
hour	-12540
http	-12541
ibon	-12542
iect	-12543
ikal	-12544
ikit	-12545
iksi	-12546
inti	-12547
iost	-12548
itas	-12549
lers	-12550
link	-12551
llip	-12552
loss	-12553
mary	-12554
mend	-12555
mits	-12556
nane	-12557
nano	-12558
oday	-12559
offs	-12560
okus	-12561
oles	-12562
oses	-12563
ovas	-12564
pair	-12565
prag	-12566
race	-12567
rans	-12568
rary	-12569
rece	-12570
ried	-12571
room	-12572
ruit	-12573
rupt	-12574
shop	-12575
sing	-12576
tail	-12577
take	-12578
tama	-12579
thes	-12580
tick	-12581
tika	-12582
tize	-12583
tune	-12584
uler	-12585
ulum	-12586
uman	-12587
umps	-12588
usia	-12589
usul	-12590
util	-12591
what	-12592
wiki	-12593
xxxx	-12594
yada	-12595
yoga	-12596
zero	-12597
}}(\	-12598
▁##*	-12599
ebru	-12600
html	-12601
▁(4.	-12602
▁(5.	-12603
▁**1	-12604
▁///	-12605
▁1).	-12606
▁1):	-12607
▁1);	-12608
▁1)|	-12609
▁1,5	-12610
▁1-3	-12611
▁1..	-12612
▁1.6	-12613
▁109	-12614
▁10;	-12615
▁115	-12616
▁116	-12617
▁119	-12618
▁11]	-12619
▁12%	-12620
▁127	-12621
▁135	-12622
▁136	-12623
▁137	-12624
▁138	-12625
▁140	-12626
▁158	-12627
▁166	-12628
▁18-	-12629
▁19.	-12630
▁196	-12631
▁1⁄2	-12632
▁2.0	-12633
▁2.7	-12634
▁20.	-12635
▁214	-12636
▁245	-12637
▁25)	-12638
▁268	-12639
▁280	-12640
▁29:	-12641
▁3.9	-12642
▁3/5	-12643
▁30,	-12644
▁30:	-12645
▁35%	-12646
▁4-6	-12647
▁40%	-12648
▁47)	-12649
▁497	-12650
▁4].	-12651
▁53,	-12652
▁532	-12653
▁560	-12654
▁569	-12655
▁6.6	-12656
▁60°	-12657
▁626	-12658
▁64)	-12659
▁67%	-12660
▁73%	-12661
▁73.	-12662
▁75.	-12663
▁8):	-12664
▁9.0	-12665
▁95%	-12666
▁955	-12667
▁<10	-12668
▁<50	-12669
▁=(0	-12670
▁ACM	-12671
▁ANN	-12672
▁AVG	-12673
▁Ada	-12674
▁Aff	-12675
▁Aur	-12676
▁Bad	-12677
▁Ber	-12678
▁CFB	-12679
▁CPl	-12680
▁Cab	-12681
▁DFA	-12682
▁DLP	-12683
▁DOl	-12684
▁Dav	-12685
▁Dif	-12686
▁Dpc	-12687
▁ELE	-12688
▁EXT	-12689
▁FUN	-12690
▁GLO	-12691
▁GUl	-12692
▁IPs	-12693
▁Ing	-12694
▁Iow	-12695
▁Jur	-12696
▁KES	-12697
▁Lod	-12698
▁MKS	-12699
▁Mac	-12700
▁Mil	-12701
▁NFT	-12702
▁NUL	-12703
▁NUM	-12704
▁Nam	-12705
▁Nav	-12706
▁ONE	-12707
▁Oil	-12708
▁PAN	-12709
▁PCO	-12710
▁POS	-12711
▁PPT	-12712
▁PRA	-12713
▁Pen	-12714
▁PmU	-12715
▁Pno	-12716
▁QQQ	-12717
▁Rah	-12718
▁Riy	-12719
▁Roy	-12720
▁SAR	-12721
▁SAU	-12722
▁STR	-12723
▁SUN	-12724
▁Sed	-12725
▁Seq	-12726
▁She	-12727
▁Squ	-12728
▁Tes	-12729
▁Tom	-12730
▁USE	-12731
▁UnK	-12732
▁WAN	-12733
▁WHO	-12734
▁XAI	-12735
▁Zhu	-12736
▁[6]	-12737
▁[7,	-12738
▁[9]	-12739
▁\(\	-12740
▁\):	-12741
▁amb	-12742
▁bhi	-12743
▁bid	-12744
▁cas	-12745
▁che	-12746
▁cmd	-12747
▁cop	-12748
▁cte	-12749
▁deb	-12750
▁dir	-12751
▁dom	-12752
▁fio	-12753
▁fun	-12754
▁gab	-12755
▁gap	-12756
▁gcd	-12757
▁hub	-12758
▁isy	-12759
▁jud	-12760
▁kom	-12761
▁kya	-12762
▁lag	-12763
▁laz	-12764
▁lie	-12765
▁meg	-12766
▁mot	-12767
▁npm	-12768
▁old	-12769
▁onc	-12770
▁ont	-12771
▁pag	-12772
▁plt	-12773
▁quo	-12774
▁reh	-12775
▁rip	-12776
▁rst	-12777
▁sal	-12778
▁sgp	-12779
▁sky	-12780
▁tab	-12781
▁toh	-12782
▁unn	-12783
▁wal	-12784
▁wit	-12785
▁wnu	-12786
▁wrk	-12787
▁xai	-12788
▁yes	-12789
▁∣∣=	-12790
▁≡35	-12791
(0.2)	-12792
)/2).	-12793
)=0.1	-12794
)=1/√	-12795
,90^\	-12796
0.0.1	-12797
0.054	-12798
000}{	-12799
00:00	-12800
0:97:	-12801
1.645	-12802
10489	-12803
128})	-12804
180^\	-12805
:3000	-12806
=-0.5	-12807
ALPUR	-12808
ANCED	-12809
Azure	-12810
Build	-12811
COVID	-12812
Check	-12813
Chron	-12814
ENDED	-12815
Email	-12816
GRAPH	-12817
IDODO	-12818
KHLIN	-12819
Level	-12820
Mixed	-12821
Mixup	-12822
Multi	-12823
NTHLY	-12824
QUEUE	-12825
Reddy	-12826
Shift	-12827
Small	-12828
Speed	-12829
State	-12830
Theme	-12831
There	-12832
Track	-12833
VIKOV	-12834
Valid	-12835
[20];	-12836
[3:0]	-12837
]-0.3	-12838
_2)=\	-12839
_2=0)	-12840
aborn	-12841
adder	-12842
ahapP	-12843
ampai	-12844
ampus	-12845
anjut	-12846
annot	-12847
apath	-12848
arize	-12849
ashes	-12850
ashid	-12851
atent	-12852
atile	-12853
aways	-12854
aximm	-12855
axity	-12856
backs	-12857
belaj	-12858
cepat	-12859
chart	-12860
clear	-12861
click	-12862
clock	-12863
const	-12864
cript	-12865
drive	-12866
edges	-12867
eless	-12868
elved	-12869
ennis	-12870
enses	-12871
essor	-12872
etson	-12873
evelt	-12874
eview	-12875
examp	-12876
figur	-12877
filer	-12878
float	-12879
gency	-12880
hanks	-12881
hatan	-12882
haves	-12883
hemer	-12884
heres	-12885
iance	-12886
ibpfm	-12887
inder	-12888
index	-12889
isper	-12890
istem	-12891
itics	-12892
iumjs	-12893
khait	-12894
loads	-12895
oning	-12896
otive	-12897
plane	-12898
plerG	-12899
plier	-12900
poses	-12901
rafik	-12902
ramid	-12903
rceil	-12904
rdata	-12905
ribed	-12906
rieve	-12907
right	-12908
riniv	-12909
rypto	-12910
setsi	-12911
smart	-12912
stack	-12913
tikan	-12914
under	-12915
ungsi	-12916
unity	-12917
untuk	-12918
uxury	-12919
views	-12920
vived	-12921
where	-12922
wikip	-12923
yadav	-12924
ythag	-12925
▁$0.5	-12926
▁(11,	-12927
▁(12,	-12928
▁(2-3	-12929
▁(90,	-12930
▁0-1)	-12931
▁0.3)	-12932
▁0.8,	-12933
▁0.91	-12934
▁0.92	-12935
▁0000	-12936
▁1-2)	-12937
▁1.0.	-12938
▁1.1.	-12939
▁1.2.	-12940
▁1.46	-12941
▁1.48	-12942
▁1.50	-12943
▁1.52	-12944
▁1.54	-12945
▁1.56	-12946
▁1.6.	-12947
▁1.7.	-12948
▁1011	-12949
▁108,	-12950
▁10−6	-12951
▁1129	-12952
▁12).	-12953
▁12.5	-12954
▁1213	-12955
▁14),	-12956
▁1500	-12957
▁153.	-12958
▁180°	-12959
▁1=0,	-12960
▁2.9%	-12961
▁2009	-12962
▁2223	-12963
▁2624	-12964
▁2963	-12965
▁2969	-12966
▁2=0\	-12967
▁353,	-12968
▁6-12	-12969
▁8-10	-12970
▁8051	-12971
▁Acos	-12972
▁Arch	-12973
▁Asin	-12974
▁Axis	-12975
▁Baby	-12976
▁Bell	-12977
▁CUDA	-12978
▁CUST	-12979
▁Cart	-12980
▁Chem	-12981
▁Chen	-12982
▁Come	-12983
▁Copl	-12984
▁Cric	-12985
▁DHcp	-12986
▁Dest	-12987
▁Docs	-12988
▁Down	-12989
▁ERRO	-12990
▁Emai	-12991
▁FCFS	-12992
▁Fire	-12993
▁Flag	-12994
▁Foot	-12995
▁ForM	-12996
▁Gain	-12997
▁Gaps	-12998
▁Gate	-12999
▁Grip	-13000
▁HTTP	-13001
▁Horz	-13002
▁Hubs	-13003
▁IGLO	-13004
▁Init	-13005
▁Jamn	-13006
▁Janu	-13007
▁LIME	-13008
▁Labs	-13009
▁Life	-13010
▁Like	-13011
▁Live	-13012
▁MEAN	-13013
▁MLEs	-13014
▁MOST	-13015
▁MSDA	-13016
▁Mans	-13017
▁Mart	-13018
▁Mein	-13019
▁Mich	-13020
▁OSpF	-13021
▁POVM	-13022
▁Pawn	-13023
▁Pear	-13024
▁Pine	-13025
▁Push	-13026
▁QEMU	-13027
▁Qian	-13028
▁RISK	-13029
▁Rich	-13030
▁Ring	-13031
▁Roos	-13032
▁Saba	-13033
▁Sept	-13034
▁TLSv	-13035
▁Toor	-13036
▁UGMs	-13037
▁Vill	-13038
▁Vout	-13039
▁Watt	-13040
▁Well	-13041
▁[16,	-13042
▁[22]	-13043
▁[28]	-13044
▁[3],	-13045
▁acak	-13046
▁acts	-13047
▁alph	-13048
▁andR	-13049
▁anom	-13050
▁argc	-13051
▁args	-13052
▁argv	-13053
▁away	-13054
▁boot	-13055
▁canc	-13056
▁come	-13057
▁cosx	-13058
▁curl	-13059
▁dada	-13060
▁deta	-13061
▁doct	-13062
▁drag	-13063
▁ease	-13064
▁ents	-13065
▁eweu	-13066
▁fear	-13067
▁flat	-13068
▁flux	-13069
▁forh	-13070
▁fost	-13071
▁gain	-13072
▁gene	-13073
▁genu	-13074
▁inac	-13075
▁init	-13076
▁intx	-13077
▁jika	-13078
▁json	-13079
▁kese	-13080
▁kext	-13081
▁lapt	-13082
▁leak	-13083
▁lets	-13084
▁maka	-13085
▁memp	-13086
▁menu	-13087
▁mine	-13088
▁modn	-13089
▁neck	-13090
▁nois	-13091
▁onto	-13092
▁pain	-13093
▁pane	-13094
▁plug	-13095
▁pump	-13096
▁puzz	-13097
▁rice	-13098
▁roll	-13099
▁runs	-13100
▁says	-13101
▁seen	-13102
▁shre	-13103
▁sine	-13104
▁sirf	-13105
▁spes	-13106
▁stop	-13107
▁summ	-13108
▁symb	-13109
▁sync	-13110
▁tell	-13111
▁tend	-13112
▁terj	-13113
▁thor	-13114
▁ties	-13115
▁tiny	-13116
▁ultr	-13117
▁walk	-13118
▁wind	-13119
▁wmic	-13120
▁zoom	-13121
▁•12,	-13122
(100),	-13123
)=0.2,	-13124
)=0.3,	-13125
0.0.1,	-13126
0/0.50	-13127
023523	-13128
4.0/24	-13129
666667	-13130
=0.01)	-13131
ALININ	-13132
AMOUNT	-13133
ANGDOO	-13134
ANGPUR	-13135
BOTTOM	-13136
Button	-13137
Config	-13138
HAYUDI	-13139
Linear	-13140
Mishra	-13141
Number	-13142
SELECT	-13143
Server	-13144
States	-13145
Status	-13146
System	-13147
Tensor	-13148
VISION	-13149
Verify	-13150
Vertex	-13151
Visual	-13152
Window	-13153
^{-1})	-13154
abular	-13155
agraph	-13156
ainder	-13157
andest	-13158
angkau	-13159
apisan	-13160
aptive	-13161
ariant	-13162
asikan	-13163
asonal	-13164
asonic	-13165
coNFIG	-13166
coming	-13167
consum	-13168
counts	-13169
ctives	-13170
emukan	-13171
ending	-13172
eption	-13173
eringk	-13174
espace	-13175
essler	-13176
eteksi	-13177
ethere	-13178
global	-13179
hitung	-13180
ictims	-13181
ipment	-13182
izable	-13183
jbcnin	-13184
kernel	-13185
lessly	-13186
listen	-13187
medium	-13188
olahan	-13189
ometry	-13190
others	-13191
outube	-13192
ovanto	-13193
porary	-13194
pratik	-13195
preted	-13196
proved	-13197
rangle	-13198
recall	-13199
remely	-13200
ressor	-13201
result	-13202
return	-13203
rhosis	-13204
ridges	-13205
ringer	-13206
sample	-13207
select	-13208
sockfd	-13209
stream	-13210
tensor	-13211
thogon	-13212
tively	-13213
upyter	-13214
vishnu	-13215
wrdata	-13216
▁(0,0)	-13217
▁(103,	-13218
▁(180,	-13219
▁(2007	-13220
▁(30%)	-13221
▁(70%)	-13222
▁-0.02	-13223
▁0.000	-13224
▁0.003	-13225
▁0.025	-13226
▁0.027	-13227
▁0.039	-13228
▁0.368	-13229
▁0.75,	-13230
▁0.825	-13231
▁1,500	-13232
▁10−11	-13233
▁10−12	-13234
▁10−15	-13235
▁12345	-13236
▁18.4%	-13237
▁2000]	-13238
▁2005.	-13239
▁2020)	-13240
▁2023,	-13241
▁2024,	-13242
▁830-1	-13243
▁90.9%	-13244
▁91,32	-13245
▁95.2%	-13246
▁97.3%	-13247
▁<0.01	-13248
▁ABsin	-13249
▁Again	-13250
▁Ahmed	-13251
▁Alice	-13252
▁Ankit	-13253
▁Apnea	-13254
▁Begin	-13255
▁Board	-13256
▁Bonus	-13257
▁Booth	-13258
▁Boxes	-13259
▁CATAR	-13260
▁Chest	-13261
▁Click	-13262
▁Colab	-13263
▁Curve	-13264
▁Decre	-13265
▁Delay	-13266
▁EIGRP	-13267
▁EIgRP	-13268
▁Exact	-13269
▁Explo	-13270
▁FLOAT	-13271
▁Febru	-13272
▁Fraud	-13273
▁Front	-13274
▁Gates	-13275
▁Giant	-13276
▁Great	-13277
▁Hafiz	-13278
▁Hindi	-13279
▁Hyper	-13280
▁INNER	-13281
▁Indic	-13282
▁Intel	-13283
▁Irreg	-13284
▁Jaysh	-13285
▁KRish	-13286
▁LaTeX	-13287
▁Later	-13288
▁Lemma	-13289
▁Locks	-13290
▁Logic	-13291
▁Loops	-13292
▁Lower	-13293
▁Major	-13294
▁Mealy	-13295
▁Plane	-13296
▁Prime	-13297
▁RIGHT	-13298
▁Rapid	-13299
▁Redia	-13300
▁Robin	-13301
▁START	-13302
▁Scale	-13303
▁Sends	-13304
▁Shows	-13305
▁Shuff	-13306
▁Slope	-13307
▁Stata	-13308
▁TRACT	-13309
▁Today	-13310
▁Trade	-13311
▁Trend	-13312
▁Trust	-13313
▁Typed	-13314
▁UDISE	-13315
▁Vlans	-13316
▁WHITE	-13317
▁WebGL	-13318
▁Works	-13319
▁Youth	-13320
▁[3:0]	-13321
▁andar	-13322
▁appre	-13323
▁asked	-13324
▁assum	-13325
▁audit	-13326
▁axios	-13327
▁beach	-13328
▁belts	-13329
▁besar	-13330
▁bobot	-13331
▁books	-13332
▁civil	-13333
▁codes	-13334
▁coinc	-13335
▁death	-13336
▁decay	-13337
▁dense	-13338
▁deque	-13339
▁domin	-13340
▁enjoy	-13341
▁enrol	-13342
▁exper	-13343
▁faced	-13344
▁fermi	-13345
▁fokus	-13346
▁front	-13347
▁games	-13348
▁giant	-13349
▁girls	-13350
▁green	-13351
▁happy	-13352
▁harsh	-13353
▁holds	-13354
▁imply	-13355
▁intid	-13356
▁kecil	-13357
▁kumar	-13358
▁langu	-13359
▁liber	-13360
▁loops	-13361
▁macro	-13362
▁major	-13363
▁menet	-13364
▁mkdir	-13365
▁moral	-13366
▁nasal	-13367
▁nikal	-13368
▁notes	-13369
▁npact	-13370
▁objek	-13371
▁occup	-13372
▁older	-13373
▁onion	-13374
▁paste	-13375
▁peers	-13376
▁phase	-13377
▁phone	-13378
▁picks	-13379
▁piece	-13380
▁plane	-13381
▁plans	-13382
▁prosp	-13383
▁quite	-13384
▁redis	-13385
▁reset	-13386
▁retum	-13387
▁rocks	-13388
▁rough	-13389
▁scene	-13390
▁scrol	-13391
▁shelf	-13392
▁shuff	-13393
▁slide	-13394
▁slots	-13395
▁solar	-13396
▁spark	-13397
▁spent	-13398
▁spike	-13399
▁stone	-13400
▁strap	-13401
▁super	-13402
▁trade	-13403
▁trend	-13404
▁truth	-13405
▁tubes	-13406
▁twins	-13407
▁unass	-13408
▁unexp	-13409
▁union	-13410
▁unset	-13411
▁urban	-13412
▁voice	-13413
▁wants	-13414
▁weeks	-13415
▁wheat	-13416
▁white	-13417
▁xtime	-13418
-1,-1))	-13419
1714285	-13420
1806501	-13421
192.168	-13422
352330)	-13423
Avarphi	-13424
CLUSION	-13425
Chronos	-13426
DISTIRA	-13427
Darknet	-13428
Enabled	-13429
Feature	-13430
ICATION	-13431
Iridium	-13432
LabExam	-13433
Magneto	-13434
RAINING	-13435
RiskMap	-13436
Ukraine	-13437
angular	-13438
arithms	-13439
ategori	-13440
autoenc	-13441
aveling	-13442
because	-13443
casting	-13444
compare	-13445
conquer	-13446
content	-13447
cretize	-13448
elanjut	-13449
empting	-13450
emptive	-13451
entials	-13452
estamps	-13453
etitive	-13454
forated	-13455
gregate	-13456
groupid	-13457
iencies	-13458
inciple	-13459
induced	-13460
infeksi	-13461
irmware	-13462
istence	-13463
itative	-13464
latency	-13465
ligible	-13466
lliptic	-13467
mathcal	-13468
mendous	-13469
message	-13470
modules	-13471
ologies	-13472
omework	-13473
optimal	-13474
oratory	-13475
ounting	-13476
outputs	-13477
pattern	-13478
percase	-13479
plicity	-13480
powered	-13481
request	-13482
scratch	-13483
sharing	-13484
staruml	-13485
studies	-13486
tension	-13487
trivial	-13488
ulating	-13489
urement	-13490
usulkan	-13491
vention	-13492
ventive	-13493
version	-13494
visited	-13495
without	-13496
{2000}{	-13497
}=-0.5)	-13498
▁(2019)	-13499
▁({0,1}	-13500
▁0.0000	-13501
▁ANNUAL	-13502
▁Actual	-13503
▁Alerts	-13504
▁Allows	-13505
▁Altern	-13506
▁Bubble	-13507
▁Burhan	-13508
▁Centre	-13509
▁Coffee	-13510
▁Contig	-13511
▁Credit	-13512
▁Cyclic	-13513
▁DELETE	-13514
▁Dating	-13515
▁Delete	-13516
▁Deploy	-13517
▁Distro	-13518
▁Divide	-13519
▁Double	-13520
▁Editor	-13521
▁Effect	-13522
▁Encour	-13523
▁Ensure	-13524
▁Entity	-13525
▁Enumer	-13526
▁Favors	-13527
▁Fields	-13528
▁Finger	-13529
▁Finite	-13530
▁Folder	-13531
▁GLOBAL	-13532
▁Haroon	-13533
▁Header	-13534
▁IAnkit	-13535
▁IFastE	-13536
▁InvMix	-13537
▁JAnkit	-13538
▁Jetson	-13539
▁Khalil	-13540
▁Laptop	-13541
▁Lights	-13542
▁Limits	-13543
▁MATRIX	-13544
▁MULTIP	-13545
▁Misses	-13546
▁Mobile	-13547
▁Office	-13548
▁OneWeb	-13549
▁OpenXR	-13550
▁Protoc	-13551
▁Pythag	-13552
▁Radius	-13553
▁Rashid	-13554
▁Riyadh	-13555
▁Russia	-13556
▁Satish	-13557
▁Schmid	-13558
▁Sharma	-13559
▁Skills	-13560
▁Smooth	-13561
▁Sphere	-13562
▁Sriniv	-13563
▁Stores	-13564
▁String	-13565
▁Summar	-13566
▁Tokens	-13567
▁Trigon	-13568
▁Upload	-13569
▁Useful	-13570
▁WIDODO	-13571
▁Worked	-13572
▁almost	-13573
▁arrays	-13574
▁arrows	-13575
▁asanas	-13576
▁aspect	-13577
▁atomic	-13578
▁author	-13579
▁avoids	-13580
▁backup	-13581
▁behave	-13582
▁bentuk	-13583
▁brings	-13584
▁burden	-13585
▁ceturn	-13586
▁closer	-13587
▁comorb	-13588
▁covert	-13589
▁deeply	-13590
▁depart	-13591
▁depriv	-13592
▁driven	-13593
▁eating	-13594
▁eigenv	-13595
▁eksper	-13596
▁encoun	-13597
▁enters	-13598
▁ethics	-13599
▁evolve	-13600
▁famili	-13601
▁famous	-13602
▁fewest	-13603
▁forces	-13604
▁fusion	-13605
▁haptic	-13606
▁inProc	-13607
▁incons	-13608
▁insert	-13609
▁interf	-13610
▁ketika	-13611
▁listed	-13612
▁little	-13613
▁loplus	-13614
▁mapped	-13615
▁maximm	-13616
▁memper	-13617
▁minute	-13618
▁negara	-13619
▁onions	-13620
▁params	-13621
▁percep	-13622
▁piksel	-13623
▁please	-13624
▁primes	-13625
▁proven	-13626
▁ration	-13627
▁relate	-13628
▁render	-13629
▁repeat	-13630
▁rights	-13631
▁rotate	-13632
▁scheme	-13633
▁screen	-13634
▁senses	-13635
▁shocks	-13636
▁sketch	-13637
▁slowly	-13638
▁solves	-13639
▁stones	-13640
▁subset	-13641
▁sudden	-13642
▁termin	-13643
▁threat	-13644
▁tracks	-13645
▁trigon	-13646
▁uneven	-13647
▁unlike	-13648
▁varied	-13649
▁vision	-13650
▁weaker	-13651
▁worked	-13652
▁wrdata	-13653
.2020.10	-13654
Advanced	-13655
Apartial	-13656
CATEGORY	-13657
Commerce	-13658
Complete	-13659
Computer	-13660
DataType	-13661
Friendly	-13662
Hydrolog	-13663
IDSalary	-13664
Includes	-13665
Industry	-13666
Oriented	-13667
Pipeline	-13668
RoundKey	-13669
Shortest	-13670
Switcher	-13671
TensorRT	-13672
accuracy	-13673
activity	-13674
andatory	-13675
benefits	-13676
blocking	-13677
database	-13678
directly	-13679
ductance	-13680
duration	-13681
ecessary	-13682
elective	-13683
elements	-13684
enewable	-13685
entities	-13686
ethereum	-13687
frontend	-13688
generate	-13689
ibonacci	-13690
iostream	-13691
ivalence	-13692
learning	-13693
omething	-13694
operated	-13695
optimize	-13696
optional	-13697
physical	-13698
pointing	-13699
positive	-13700
profiler	-13701
rashmika	-13702
relation	-13703
reported	-13704
research	-13705
rontiers	-13706
secondse	-13707
standard	-13708
threaded	-13709
titative	-13710
velocity	-13711
▁$50-100	-13712
▁((180^\	-13713
▁(2019).	-13714
▁2000:00	-13715
▁2409:40	-13716
▁3100.00	-13717
▁6162636	-13718
▁Adapter	-13719
▁Android	-13720
▁Anxiety	-13721
▁Article	-13722
▁Augment	-13723
▁Careful	-13724
▁Circles	-13725
▁Clearly	-13726
▁Coastal	-13727
▁Compile	-13728
▁Correct	-13729
▁Cricket	-13730
▁Cutting	-13731
▁Dangers	-13732
▁Divided	-13733
▁Effects	-13734
▁Enabied	-13735
▁Enables	-13736
▁English	-13737
▁Ensured	-13738
▁Faculty	-13739
▁Figures	-13740
▁Handles	-13741
▁Indians	-13742
▁KALININ	-13743
▁KeplerG	-13744
▁Locking	-13745
▁Mansoor	-13746
▁Options	-13747
▁Outputs	-13748
▁Partial	-13749
▁Passive	-13750
▁Pathway	-13751
▁Pearson	-13752
▁Qianhui	-13753
▁RAKHLIN	-13754
▁Records	-13755
▁Reverse	-13756
▁RiskMap	-13757
▁Roadmap	-13758
▁Running	-13759
▁Samples	-13760
▁Schemes	-13761
▁Scripts	-13762
▁Sensing	-13763
▁Several	-13764
▁Signals	-13765
▁Started	-13766
▁Strings	-13767
▁Tangent	-13768
▁Touches	-13769
▁UnKnown	-13770
▁Vehicle	-13771
▁[120/2]	-13772
▁adapted	-13773
▁adverse	-13774
▁amounts	-13775
▁angular	-13776
▁applies	-13777
▁autoenc	-13778
▁avatars	-13779
▁backups	-13780
▁behaves	-13781
▁bitwise	-13782
▁breathe	-13783
▁choices	-13784
▁closely	-13785
▁collect	-13786
▁comfort	-13787
▁conform	-13788
▁corners	-13789
▁crashes	-13790
▁creates	-13791
▁curated	-13792
▁cutting	-13793
▁degrade	-13794
▁denotes	-13795
▁despite	-13796
▁dilatih	-13797
▁disturb	-13798
▁doctors	-13799
▁domains	-13800
▁dropout	-13801
▁economy	-13802
▁encrypt	-13803
▁endcase	-13804
▁ephemer	-13805
▁equally	-13806
▁evolved	-13807
▁execute	-13808
▁exhaled	-13809
▁exhibit	-13810
▁feeling	-13811
▁folders	-13812
▁gateway	-13813
▁genetic	-13814
▁getting	-13815
▁hashing	-13816
▁heatmap	-13817
▁heavier	-13818
▁highest	-13819
▁imaging	-13820
▁inequal	-13821
▁intmain	-13822
▁irreduc	-13823
▁laptops	-13824
▁leaving	-13825
▁library	-13826
▁license	-13827
▁located	-13828
▁manusia	-13829
▁masalah	-13830
▁membuat	-13831
▁mentors	-13832
▁metriks	-13833
▁mileage	-13834
▁million	-13835
▁mindful	-13836
▁modular	-13837
▁moniter	-13838
▁offered	-13839
▁offline	-13840
▁ongoing	-13841
▁pandemi	-13842
▁passage	-13843
▁pertama	-13844
▁precise	-13845
▁raising	-13846
▁recruit	-13847
▁removal	-13848
▁replace	-13849
▁resolve	-13850
▁reverse	-13851
▁reviews	-13852
▁roadmap	-13853
▁servers	-13854
▁slotted	-13855
▁species	-13856
▁speedup	-13857
▁spheres	-13858
▁spreads	-13859
▁stretch	-13860
▁subsequ	-13861
▁suicide	-13862
▁swapped	-13863
▁tanggal	-13864
▁teaches	-13865
▁tension	-13866
▁terdiri	-13867
▁theorem	-13868
▁trivial	-13869
▁typical	-13870
▁umumnya	-13871
▁unequal	-13872
▁univers	-13873
▁warfare	-13874
▁witness	-13875
▁•12,881	-13876
/10.1109/	-13877
/10.1177/	-13878
02351173)	-13879
10489-020	-13880
CacheSize	-13881
Dashboard	-13882
Execution	-13883
Ilustrasi	-13884
Monotonic	-13885
RODUCTION	-13886
ShiftRows	-13887
Synthetic	-13888
accepting	-13889
andestine	-13890
andingkan	-13891
belajaran	-13892
classical	-13893
collision	-13894
consuming	-13895
ependence	-13896
estimates	-13897
explainer	-13898
hilangkan	-13899
intercept	-13900
khaitanco	-13901
monotonic	-13902
ovascular	-13903
plaintext	-13904
positions	-13905
processor	-13906
remaining	-13907
roducible	-13908
sectional	-13909
tolerance	-13910
wikipedia	-13911
▁(2^{32})	-13912
▁4000.00,	-13913
▁Acoustic	-13914
▁Advances	-13915
▁Autonomy	-13916
▁Bounding	-13917
▁CATARACT	-13918
▁Circular	-13919
▁Cleaning	-13920
▁Clinical	-13921
▁Clusters	-13922
▁CompuTer	-13923
▁Computem	-13924
▁Conflict	-13925
▁Continue	-13926
▁Controls	-13927
▁Converts	-13928
▁Coplanar	-13929
▁Creation	-13930
▁Datasets	-13931
▁DateTime	-13932
▁Deadline	-13933
▁Deriving	-13934
▁Diagrams	-13935
▁Discrete	-13936
▁EXTENDED	-13937
▁Exposure	-13938
▁Extended	-13939
▁FORMULAE	-13940
▁FastEthe	-13941
▁February	-13942
▁Feedback	-13943
▁Forecast	-13944
▁Friendly	-13945
▁Hopfield	-13946
▁Horizons	-13947
▁Hypothes	-13948
▁Iogistic	-13949
▁Jayshree	-13950
▁Machines	-13951
▁Manually	-13952
▁Matrices	-13953
▁Minority	-13954
▁Modified	-13955
▁National	-13956
▁NeTwORKS	-13957
▁Notebook	-13958
▁Ontology	-13959
▁Original	-13960
▁Patients	-13961
▁Portable	-13962
▁Prepared	-13963
▁RAHAYUDI	-13964
▁REVISION	-13965
▁Recelved	-13966
▁Requires	-13967
▁Resource	-13968
▁Robotics	-13969
▁RoundKey	-13970
▁SIGGRAPH	-13971
▁Sciences	-13972
▁Serverpy	-13973
▁Simulate	-13974
▁Slightly	-13975
▁Suitable	-13976
▁Supplier	-13977
▁Tangents	-13978
▁Template	-13979
▁Whatsapp	-13980
▁accepted	-13981
▁acquired	-13982
▁actively	-13983
▁alphabet	-13984
▁although	-13985
▁analyses	-13986
▁backtrac	-13987
▁barriers	-13988
▁blockDim	-13989
▁blockIdx	-13990
▁boundary	-13991
▁buffered	-13992
▁bullying	-13993
▁capacity	-13994
▁cardinal	-13995
▁checking	-13996
▁choosing	-13997
▁clusters	-13998
▁cofactor	-13999
▁confound	-14000
▁contexts	-14001
▁counting	-14002
▁coupling	-14003
▁crossing	-14004
▁deployed	-14005
▁disagree	-14006
▁electrom	-14007
▁entirely	-14008
▁evidence	-14009
▁examined	-14010
▁expanded	-14011
▁explains	-14012
▁filename	-14013
▁filtered	-14014
▁gabungan	-14015
▁hierarch	-14016
▁inferior	-14017
▁inversey	-14018
▁kategori	-14019
▁keluaran	-14020
▁labelled	-14021
▁menyebar	-14022
▁missions	-14023
▁moderate	-14024
▁multiply	-14025
▁navigate	-14026
▁normally	-14027
▁numbered	-14028
▁ontology	-14029
▁outlines	-14030
▁overlays	-14031
▁particle	-14032
▁pathways	-14033
▁perceive	-14034
▁phenomen	-14035
▁pointing	-14036
▁politics	-14037
▁powerful	-14038
▁prediksi	-14039
▁probable	-14040
▁projects	-14041
▁promotes	-14042
▁purposes	-14043
▁quotient	-14044
▁reaching	-14045
▁readings	-14046
▁recovery	-14047
▁redefine	-14048
▁remained	-14049
▁replaced	-14050
▁replaces	-14051
▁reported	-14052
▁reshaped	-14053
▁resonant	-14054
▁revenues	-14055
▁scenario	-14056
▁skyfield	-14057
▁smallest	-14058
▁smoother	-14059
▁snippets	-14060
▁spending	-14061
▁strategy	-14062
▁strictly	-14063
▁stronger	-14064
▁subgroup	-14065
▁symmetry	-14066
▁tailored	-14067
▁tailwind	-14068
▁thinking	-14069
▁thorough	-14070
▁turnover	-14071
▁verified	-14072
▁{-1,0,1}	-14073
127.0.0.1,	-14074
AlertPanel	-14075
Generating	-14076
Kubernetes	-14077
Technology	-14078
activation	-14079
asaService	-14080
authorized	-14081
connection	-14082
correlated	-14083
enggunakan	-14084
expression	-14085
functional	-14086
ighborhood	-14087
rightarrow	-14088
smartphone	-14089
transition	-14090
vxUntitled	-14091
ynamically	-14092
▁0.018162,	-14093
▁00:00:02,	-14094
▁00:00:10,	-14095
▁00:00:12,	-14096
▁2,000,000	-14097
▁202352311	-14098
▁Amplitude	-14099
▁Assistant	-14100
▁Automated	-14101
▁Blueprint	-14102
▁Breakdown	-14103
▁Collected	-14104
▁Collinear	-14105
▁Combining	-14106
▁Community	-14107
▁Consensus	-14108
▁Decentral	-14109
▁Developer	-14110
▁Disfavors	-14111
▁Duplicate	-14112
▁Expansion	-14113
▁Explainer	-14114
▁Financial	-14115
▁Gradients	-14116
▁IGLOVIKOV	-14117
▁Imbalance	-14118
▁Increased	-14119
▁Insertion	-14120
▁Interrace	-14121
▁Irregular	-14122
▁Libraries	-14123
▁Materials	-14124
▁Meanwhile	-14125
▁Measuring	-14126
▁Principal	-14127
▁Processor	-14128
▁Protessor	-14129
▁Recording	-14130
▁Regressor	-14131
▁Remainder	-14132
▁Reporting	-14133
▁Roosevelt	-14134
▁SARANGPUR	-14135
▁Schematic	-14136
▁September	-14137
▁Stability	-14138
▁Timestamp	-14139
▁Tolerance	-14140
▁Universal	-14141
▁Utilities	-14142
▁Utilizing	-14143
▁Yudistira	-14144
▁accepting	-14145
▁achieving	-14146
▁assistant	-14147
▁baseboard	-14148
▁bertambah	-14149
▁calculate	-14150
▁causality	-14151
▁childhood	-14152
▁cirrhosis	-14153
▁classical	-14154
▁cofactors	-14155
▁cognitive	-14156
▁computers	-14157
▁continued	-14158
▁contracts	-14159
▁corrected	-14160
▁currently	-14161
▁cylinders	-14162
▁designing	-14163
▁economies	-14164
▁elevation	-14165
▁exceeding	-14166
▁excellent	-14167
▁explained	-14168
▁extensive	-14169
▁extremely	-14170
▁factoring	-14171
▁formation	-14172
▁formatted	-14173
▁gradually	-14174
▁happening	-14175
▁increment	-14176
▁initiated	-14177
▁injection	-14178
▁intention	-14179
▁intersect	-14180
▁invention	-14181
▁judgments	-14182
▁kesehatan	-14183
▁laborator	-14184
▁languages	-14185
▁leverages	-14186
▁liberties	-14187
▁mediating	-14188
▁mengganti	-14189
▁modulated	-14190
▁multipath	-14191
▁occurring	-14192
▁paragraph	-14193
▁pengujian	-14194
▁perfectly	-14195
▁pervasive	-14196
▁placement	-14197
▁preempted	-14198
▁preserved	-14199
▁pressures	-14200
▁processor	-14201
▁published	-14202
▁radiation	-14203
▁redundant	-14204
▁religious	-14205
▁reproduce	-14206
▁retention	-14207
▁scheduler	-14208
▁schedules	-14209
▁segmented	-14210
▁semaphore	-14211
▁simulator	-14212
▁steradian	-14213
▁substrate	-14214
▁substring	-14215
▁subsystem	-14216
▁telegraph	-14217
▁telephone	-14218
▁timesteps	-14219
▁tolerance	-14220
▁transmits	-14221
▁transport	-14222
▁uncertain	-14223
▁variation	-14224
▁viewpoint	-14225
▁weighting	-14226
Information	-14227
Obstructive	-14228
enghasilkan	-14229
hematically	-14230
hematicians	-14231
interpreted	-14232
significant	-14233
stitutional	-14234
theoretical	-14235
thogonality	-14236
▁((-1,1,-1)	-14237
▁AlertPanel	-14238
▁Allocation	-14239
▁Applicable	-14240
▁Associated	-14241
▁Augmentasi	-14242
▁Blockchain	-14243
▁Blueprints	-14244
▁CONCLUSION	-14245
▁Characters	-14246
▁Clustering	-14247
▁Completely	-14248
▁Connection	-14249
▁Consistent	-14250
▁Dockerfile	-14251
▁Expression	-14252
▁Generative	-14253
▁Initialize	-14254
▁Innovation	-14255
▁Matplotlib	-14256
▁Mohityadav	-14257
▁Networking	-14258
▁Orthogonal	-14259
▁PowerShell	-14260
▁Principles	-14261
▁Projective	-14262
▁Protection	-14263
▁Pythagoras	-14264
▁Relational	-14265
▁Represents	-14266
▁Starvation	-14267
▁Statements	-14268
▁Statistics	-14269
▁Structural	-14270
▁Subnetting	-14271
▁Supervisor	-14272
▁Turnaround	-14273
▁acceptable	-14274
▁assistants	-14275
▁assumption	-14276
▁attempting	-14277
▁automotive	-14278
▁classifies	-14279
▁clustering	-14280
▁compatible	-14281
▁conceptual	-14282
▁constantly	-14283
▁contextual	-14284
▁correlated	-14285
▁cudaMalloc	-14286
▁decoupling	-14287
▁determined	-14288
▁dihasilkan	-14289
▁documented	-14290
▁eksperimen	-14291
▁eksplorasi	-14292
▁government	-14293
▁guidelines	-14294
▁inaccurate	-14295
▁integrates	-14296
▁internship	-14297
▁intersects	-14298
▁interviews	-14299
▁introduced	-14300
▁invertible	-14301
▁iterations	-14302
▁kinematics	-14303
▁limitation	-14304
▁magnitudes	-14305
▁maintained	-14306
▁masukannya	-14307
▁menetapkan	-14308
▁mitigation	-14309
▁moderating	-14310
▁negligible	-14311
▁optimizing	-14312
▁pagination	-14313
▁pengolahan	-14314
▁perforated	-14315
▁predictive	-14316
▁prevalence	-14317
▁preventive	-14318
▁prognostic	-14319
▁projection	-14320
▁protection	-14321
▁reasonable	-14322
▁reductions	-14323
▁referenced	-14324
▁reflecting	-14325
▁repeatedly	-14326
▁resolution	-14327
▁retraining	-14328
▁robustness	-14329
▁saturation	-14330
▁sekitarnya	-14331
▁showcasing	-14332
▁simplicity	-14333
▁situations	-14334
▁stringname	-14335
▁subprocess	-14336
▁successful	-14337
▁suggesting	-14338
▁supervisor	-14339
▁traditions	-14340
▁tremendous	-14341
▁ultrasonic	-14342
▁unassigned	-14343
▁unexpected	-14344
:192.168.1.1	-14345
architecture	-14346
▁(2007-2025)	-14347
▁(202352330)	-14348
▁11001001011	-14349
▁192.168.2.0	-14350
▁5000.002018	-14351
▁Agriculture	-14352
▁Alternative	-14353
▁Attenuation	-14354
▁Compression	-14355
▁Computation	-14356
▁Controllers	-14357
▁Cooperation	-14358
▁Definitions	-14359
▁Distinguish	-14360
▁Eligibility	-14361
▁Enumeration	-14362
▁Foundations	-14363
▁Furthermore	-14364
▁Identifiers	-14365
▁Improvement	-14366
▁Incorporate	-14367
▁Inefficient	-14368
▁Instruction	-14369
▁InvSubBytes	-14370
▁Mindfulness	-14371
▁Motherboard	-14372
▁Multivalued	-14373
▁Predictable	-14374
▁Suggestions	-14375
▁Sustainable	-14376
▁Theoretical	-14377
▁acknowledge	-14378
▁advancement	-14379
▁ciphertexts	-14380
▁clandestine	-14381
▁classifying	-14382
▁configuring	-14383
▁contributed	-14384
▁controlling	-14385
▁credentials	-14386
▁demographic	-14387
▁deployments	-14388
▁deprivation	-14389
▁distraction	-14390
▁electronics	-14391
▁encountered	-14392
▁encryptions	-14393
▁enterprises	-14394
▁equivalents	-14395
▁exploration	-14396
▁fabrication	-14397
▁familiarize	-14398
▁handwritten	-14399
▁incorporate	-14400
▁inefficient	-14401
▁initiatives	-14402
▁instructors	-14403
▁interpolate	-14404
▁irreducible	-14405
▁motherboard	-14406
▁normalisasi	-14407
▁participate	-14408
▁perceptions	-14409
▁permissions	-14410
▁perspective	-14411
▁positioning	-14412
▁potentially	-14413
▁prototyping	-14414
▁recursively	-14415
▁regulations	-14416
▁shivamkumar	-14417
▁smartphones	-14418
▁subtraction	-14419
▁transcripts	-14420
▁unnecessary	-14421
▁walkthrough	-14422
ThemeSwitcher	-14423
ahapPelatihan	-14424
jbcninstitute	-14425
▁10.47.85.188	-14426
▁192.168.10.3	-14427
▁Experimental	-14428
▁FriendlyName	-14429
▁Fundamentals	-14430
▁INTRODUCTION	-14431
▁Improvements	-14432
▁Instrumental	-14433
▁Interactions	-14434
▁InvShiftRows	-14435
▁Marketplaces	-14436
▁Mathematical	-14437
▁Organization	-14438
▁Prerequisite	-14439
▁Presentation	-14440
▁Segmentation	-14441
▁accumulation	-14442
▁agricultural	-14443
▁augmentation	-14444
▁availability	-14445
▁backpointers	-14446
▁benchmarking	-14447
▁computations	-14448
▁conditioning	-14449
▁consequences	-14450
▁contributors	-14451
▁cryptography	-14452
▁determinants	-14453
▁dramatically	-14454
▁inequalities	-14455
▁interference	-14456
▁intervention	-14457
▁introduction	-14458
▁investigated	-14459
▁meningkatkan	-14460
▁organization	-14461
▁productivity	-14462
▁rekonstruksi	-14463
▁sufficiently	-14464
▁surroundings	-14465
▁synchronized	-14466
..............	-14467
▁192.168.100.5	-14468
▁192.168.30.3:	-14469
▁Accessibility	-14470
▁Compatibility	-14471
▁Cyberbullying	-14472
▁Determination	-14473
▁IFastEthernet	-14474
▁Prerequisites	-14475
▁amplification	-14476
▁checkpointing	-14477
▁concentration	-14478
▁contradiction	-14479
▁contributions	-14480
▁decomposition	-14481
▁deterministic	-14482
▁differentiate	-14483
▁interpersonal	-14484
▁justification	-14485
▁participation	-14486
▁professionals	-14487
▁qualification	-14488
▁transcription	-14489
▁192.168.100.5,	-14490
▁192.168.2.0/24	-14491
▁Chapterisation	-14492
▁Characteristic	-14493
▁Misinformation	-14494
▁Photogrammetry	-14495
▁ProfessorReddy	-14496
▁Quantification	-14497
▁cardiovascular	-14498
▁concentrations	-14499
▁considerations	-14500
▁distinguishing	-14501
▁interdigitated	-14502
▁mathematicians	-14503
▁merekonstruksi	-14504
▁piezoresistive	-14505
▁responsiveness	-14506
▁revolutionized	-14507
▁192.168.20.0/24	-14508
▁ProfessorMishra	-14509
▁democratization	-14510
▁electromagnetic	-14511
▁experimentation	-14512
▁interpretations	-14513
▁recommendations	-14514
▁troubleshooting	-14515
!.	-14516
"'	-14517
"]	-14518
#1	-14519
%,	-14520
'(	-14521
'-	-14522
(-	-14523
(8	-14524
(√	-14525
)!	-14526
)^	-14527
*(	-14528
*.	-14529
,*	-14530
,“	-14531
-,	-14532
-|	-14533
.9	-14534
.:	-14535
.{	-14536
.}	-14537
.”	-14538
/(	-14539
/-	-14540
/3	-14541
/4	-14542
/<	-14543
/–	-14544
1|	-14545
22	-14546
2→	-14547
3'	-14548
3;	-14549
3|	-14550
5(	-14551
5>	-14552
5×	-14553
6(	-14554
6;	-14555
7\	-14556
9/	-14557
9;	-14558
:)	-14559
:8	-14560
:[	-14561
:^	-14562
;2	-14563
<\	-14564
=&	-14565
=+	-14566
=6	-14567
==	-14568
=>	-14569
=}	-14570
=∣	-14571
>(	-14572
>.	-14573
AZ	-14574
Ai	-14575
Av	-14576
BG	-14577
BL	-14578
Bl	-14579
CY	-14580
DM	-14581
De	-14582
EC	-14583
EL	-14584
EP	-14585
EZ	-14586
Ed	-14587
Ei	-14588
Ev	-14589
Ey	-14590
FA	-14591
FD	-14592
GF	-14593
Go	-14594
Gu	-14595
HD	-14596
He	-14597
IR	-14598
Il	-14599
,7	-14600
Io	-14601
Ir	-14602
Jn	-14603
Li	-14604
Lo	-14605
Ly	-14606
Ml	-14607
NK	-14608
NR	-14609
NV	-14610
Ox	-14611
PW	-14612
Pc	-14613
Ph	-14614
Ps	-14615
QF	-14616
QZ	-14617
RD	-14618
Ro	-14619
Se	-14620
Sk	-14621
Sw	-14622
Sy	-14623
TA	-14624
Ti	-14625
Tt	-14626
UX	-14627
VD	-14628
Vs	-14629
Xj	-14630
[(	-14631
[)	-14632
[9	-14633
[:	-14634
]?	-14635
^^	-14636
_9	-14637
bf	-14638
bl	-14639
ca	-14640
dI	-14641
de	-14642
df	-14643
dj	-14644
du	-14645
eJ	-14646
ei	-14647
ez	-14648
fa	-14649
fl	-14650
fu	-14651
fy	-14652
gP	-14653
gx	-14654
gz	-14655
hA	-14656
ho	-14657
iP	-14658
ja	-14659
km	-14660
ko	-14661
lQ	-14662
mA	-14663
mm	-14664
mn	-14665
mv	-14666
my	-14667
nb	-14668
oI	-14669
oq	-14670
qs	-14671
rF	-14672
sA	-14673
sa	-14674
sb	-14675
sd	-14676
sn	-14677
ua	-14678
wg	-14679
xJ	-14680
xj	-14681
|!	-14682
|=	-14683
°:	-14684
ıa	-14685
–6	-14686
−⟩	-14687
∞,	-14688
≡3	-14689
≡7	-14690
▁,	-14691
▁`	-14692
▁ˆ	-14693
▁̈	-14694
▁μ	-14695
▁ω	-14696
▁†	-14697
▁₹	-14698
▁∈	-14699
▁≈	-14700
▁▪	-14701
▁◦	-14702
!),	-14703
()3	-14704
(-3	-14705
(02	-14706
(1,	-14707
)**	-14708
)-(	-14709
).,	-14710
).-	-14711
);.	-14712
);\	-14713
)=0	-14714
*).	-14715
+4)	-14716
+6)	-14717
+⟩=	-14718
,0)	-14719
,99	-14720
-02	-14721
-1;	-14722
-1}	-14723
-67	-14724
-99	-14725
.".	-14726
.,.	-14727
.15	-14728
.2%	-14729
.20	-14730
/$(	-14731
004	-14732
006	-14733
1)=	-14734
1)\	-14735
1,\	-14736
1.0	-14737
10×	-14738
11,	-14739
14)	-14740
16−	-14741
172	-14742
173	-14743
183	-14744
2,;	-14745
204	-14746
228	-14747
254	-14748
27@	-14749
28)	-14750
29\	-14751
2},	-14752
2}\	-14753
3),	-14754
3-4	-14755
3.0	-14756
3.7	-14757
30°	-14758
32;	-14759
35]	-14760
3=(	-14761
3],	-14762
4%)	-14763
4),	-14764
402	-14765
425	-14766
44)	-14767
550	-14768
6).	-14769
60.	-14770
600	-14771
63)	-14772
64,	-14773
644	-14774
648	-14775
7).	-14776
7.1	-14777
707	-14778
8.4	-14779
811	-14780
908	-14781
920	-14782
971	-14783
997	-14784
:14	-14785
;+;	-14786
<5)	-14787
=0)	-14788
=15	-14789
=3:	-14790
=4)	-14791
?),	-14792
ABA	-14793
ADA	-14794
API	-14795
ATH	-14796
Ann	-14797
Are	-14798
BAS	-14799
(11	-14800
):3	-14801
110	-14802
189	-14803
316	-14804
50–	-14805
680	-14806
768	-14807
8**	-14808
8.8	-14809
AST	-14810
BLI	-14811
Ben	-14812
Bra	-14813
COV	-14814
CRT	-14815
CTS	-14816
Car	-14817
Dat	-14818
Day	-14819
Dot	-14820
Dro	-14821
EDF	-14822
EEF	-14823
ENT	-14824
ERN	-14825
Est	-14826
Fig	-14827
Fil	-14828
Fir	-14829
Fsc	-14830
HAN	-14831
HIN	-14832
IAI	-14833
IFT	-14834
IST	-14835
ITY	-14836
Ket	-14837
LOD	-14838
LOP	-14839
Led	-14840
Lib	-14841
MLA	-14842
Min	-14843
NSs	-14844
NTR	-14845
Non	-14846
ORD	-14847
OgO	-14848
Oms	-14849
One	-14850
PWD	-14851
Pol	-14852
RAB	-14853
RON	-14854
Ref	-14855
Ret	-14856
SGP	-14857
SNR	-14858
Sec	-14859
Sem	-14860
Sis	-14861
Std	-14862
Sty	-14863
Sum	-14864
Sur	-14865
TER	-14866
Tim	-14867
Top	-14868
Tra	-14869
Try	-14870
URA	-14871
XAl	-14872
XML	-14873
Xiv	-14874
[0,	-14875
abh	-14876
abs	-14877
acc	-14878
aey	-14879
aia	-14880
akh	-14881
anx	-14882
apy	-14883
atz	-14884
auh	-14885
aul	-14886
bad	-14887
bas	-14888
bon	-14889
bow	-14890
bre	-14891
bro	-14892
bst	-14893
bun	-14894
bye	-14895
cha	-14896
cls	-14897
ctu	-14898
dAn	-14899
/12	-14900
/26	-14901
0,0	-14902
1)2	-14903
120	-14904
124	-14905
220	-14906
309	-14907
30]	-14908
4%9	-14909
588	-14910
<<<	-14911
Ass	-14912
CSP	-14913
LAT	-14914
OEN	-14915
dik	-14916
dst	-14917
ecl	-14918
eis	-14919
elt	-14920
emi	-14921
emu	-14922
enA	-14923
erd	-14924
gam	-14925
gep	-14926
gyp	-14927
hao	-14928
iao	-14929
igs	-14930
ini	-14931
ipe	-14932
iri	-14933
iry	-14934
jpg	-14935
key	-14936
kil	-14937
lif	-14938
lit	-14939
loo	-14940
mag	-14941
men	-14942
nat	-14943
nel	-14944
nor	-14945
oUP	-14946
oca	-14947
odi	-14948
oft	-14949
oge	-14950
ogi	-14951
osh	-14952
ppt	-14953
pus	-14954
rey	-14955
rus	-14956
sER	-14957
san	-14958
sig	-14959
src	-14960
ssA	-14961
ssl	-14962
stu	-14963
sun	-14964
sup	-14965
sys	-14966
tar	-14967
tem	-14968
tia	-14969
tib	-14970
tri	-14971
uck	-14972
udi	-14973
ued	-14974
uls	-14975
umb	-14976
van	-14977
vay	-14978
vey	-14979
vin	-14980
wal	-14981
wor	-14982
xed	-14983
xxx	-14984
xyl	-14985
yap	-14986
zal	-14987
zeg	-14988
zes	-14989
}.)	-14990
}=2	-14991
}}(	-14992
}};	-14993
≡35	-14994
▁%)	-14995
▁+\	-14996
▁-,	-14997
▁-0	-14998
▁-2	-14999
-1:	-15000
-2:	-15001
2);	-15002
358	-15003
55)	-15004
=35	-15005
Blu	-15006
CON	-15007
DON	-15008
ERM	-15009
OON	-15010
PAR	-15011
TLE	-15012
_2.	-15013
aho	-15014
boo	-15015
neq	-15016
npy	-15017
vls	-15018
▁"(	-15019
▁-5	-15020
▁/=	-15021
▁0-	-15022
▁06	-15023
▁1}	-15024
▁1·	-15025
▁2'	-15026
▁2*	-15027
▁3·	-15028
▁4=	-15029
▁4\	-15030
▁5+	-15031
▁5·	-15032
▁5×	-15033
▁6%	-15034
▁6(	-15035
▁7%	-15036
▁7)	-15037
▁8+	-15038
▁<;	-15039
▁<>	-15040
▁='	-15041
▁=2	-15042
▁=⟨	-15043
▁AF	-15044
▁AG	-15045
▁Az	-15046
▁BS	-15047
▁Ba	-15048
▁Bm	-15049
▁CB	-15050
▁CP	-15051
▁Cc	-15052
▁Cs	-15053
▁EI	-15054
▁Ei	-15055
▁FB	-15056
▁FI	-15057
▁FU	-15058
▁Ge	-15059
▁Gs	-15060
▁HP	-15061
▁HT	-15062
▁HU	-15063
▁IJ	-15064
▁IO	-15065
▁Il	-15066
▁Kr	-15067
▁LM	-15068
▁LO	-15069
▁LU	-15070
▁OK	-15071
▁PA	-15072
▁RR	-15073
▁Rl	-15074
▁SC	-15075
▁SM	-15076
▁SO	-15077
▁SR	-15078
▁Sj	-15079
▁Sw	-15080
▁TH	-15081
▁Ts	-15082
▁Uk	-15083
▁WF	-15084
▁YI	-15085
▁YU	-15086
▁[-	-15087
▁bb	-15088
▁bc	-15089
▁bf	-15090
▁ca	-15091
▁cf	-15092
▁cs	-15093
▁ea	-15094
▁fp	-15095
▁ft	-15096
▁gh	-15097
▁ii	-15098
▁il	-15099
'))	-15100
-14	-15101
0},	-15102
?))	-15103
Agn	-15104
CPI	-15105
ESH	-15106
FOR	-15107
HMM	-15108
LRO	-15109
Two	-15110
WRO	-15111
−2)	-15112
▁.4	-15113
▁ki	-15114
▁mS	-15115
▁mg	-15116
▁nc	-15117
▁nd	-15118
▁nm	-15119
▁np	-15120
▁oB	-15121
▁oF	-15122
▁oM	-15123
▁oO	-15124
▁oQ	-15125
▁oo	-15126
▁ow	-15127
▁ox	-15128
▁pb	-15129
▁pm	-15130
▁rd	-15131
▁sq	-15132
▁ut	-15133
▁vx	-15134
▁ws	-15135
▁xi	-15136
▁yj	-15137
▁{@	-15138
▁|0	-15139
▁~/	-15140
▁−ˆ	-15141
⟩+|	-15142
')),	-15143
()).	-15144
)=-2	-15145
****	-15146
+0.5	-15147
,0^\	-15148
,430	-15149
-1-1	-15150
-126	-15151
.100	-15152
.255	-15153
/100	-15154
/5).	-15155
0(0/	-15156
0,00	-15157
0.2%	-15158
0.4&	-15159
0.6]	-15160
0/3,	-15161
0/8,	-15162
0285	-15163
1(0+	-15164
100)	-15165
12).	-15166
1314	-15167
1463	-15168
1608	-15169
165-	-15170
1739	-15171
1:4:	-15172
3,;\	-15173
303)	-15174
3043	-15175
35^\	-15176
3912	-15177
3}):	-15178
401,	-15179
4292	-15180
45),	-15181
5401	-15182
6713	-15183
68.1	-15184
68.2	-15185
6800	-15186
7912	-15187
8.91	-15188
9062	-15189
9202	-15190
:2:2	-15191
:400	-15192
<5);	-15193
=0.5	-15194
=0^\	-15195
=100	-15196
=25,	-15197
@0.5	-15198
ABER	-15199
/10	-15200
105	-15201
32]	-15202
579	-15203
7:2	-15204
RAN	-15205
Str	-15206
cmp	-15207
fix	-15208
uLL	-15209
yng	-15210
|)/	-15211
0.6\	-15212
2)..	-15213
2=0,	-15214
ALLE	-15215
AMAL	-15216
AMEH	-15217
ATAN	-15218
Acos	-15219
BBBB	-15220
BLUE	-15221
Beta	-15222
Bsin	-15223
Core	-15224
Docu	-15225
Done	-15226
FMix	-15227
Face	-15228
Fine	-15229
Game	-15230
Grad	-15231
HECK	-15232
HMMs	-15233
IDDI	-15234
INGH	-15235
ISSE	-15236
Iter	-15237
LROn	-15238
LRon	-15239
Loss	-15240
MMON	-15241
OMER	-15242
ONKA	-15243
OPEZ	-15244
PMUs	-15245
PRGA	-15246
Para	-15247
Path	-15248
Phys	-15249
Rele	-15250
Road	-15251
STAT	-15252
Save	-15253
Shop	-15254
Shot	-15255
Snow	-15256
Temp	-15257
UTER	-15258
Unit	-15259
User	-15260
VERY	-15261
Vers	-15262
Wise	-15263
[18]	-15264
[19]	-15265
[3]]	-15266
_2(\	-15267
_2).	-15268
_3=0	-15269
acic	-15270
acon	-15271
adam	-15272
adeh	-15273
adel	-15274
ades	-15275
agal	-15276
ahui	-15277
aiaa	-15278
amal	-15279
amam	-15280
anau	-15281
ancy	-15282
andP	-15283
anip	-15284
anks	-15285
aple	-15286
aret	-15287
arhe	-15288
arip	-15289
arro	-15290
aser	-15291
atas	-15292
atin	-15293
avil	-15294
avor	-15295
[...]
